{
  "version": "1.0",
  "truncation": null,
  "padding": null,
  "added_tokens": [
    {
      "id": 0,
      "content": "<eos>",
      "single_word": false,
      "lstrip": false,
      "rstrip": false,
      "normalized": false,
      "special": true
    }
  ],
  "normalizer": null,
  "pre_tokenizer": {
    "type": "ByteLevel",
    "add_prefix_space": false,
    "trim_offsets": true,
    "use_regex": true
  },
  "post_processor": null,
  "decoder": {
    "type": "ByteLevel",
    "add_prefix_space": true,
    "trim_offsets": true,
    "use_regex": true
  },
  "model": {
    "type": "BPE",
    "dropout": null,
    "unk_token": null,
    "continuing_subword_prefix": null,
    "end_of_word_suffix": null,
    "fuse_unk": false,
    "byte_fallback": false,
    "ignore_merges": false,
    "vocab": {
      "<eos>": 0,
      "!": 1,
      "\"": 2,
      "#": 3,
      "$": 4,
      "%": 5,
      "&": 6,
      "'": 7,
      "(": 8,
      ")": 9,
      "*": 10,
      "+": 11,
      ",": 12,
      "-": 13,
      ".": 14,
      "/": 15,
      "0": 16,
      "1": 17,
      "2": 18,
      "3": 19,
      "4": 20,
      "5": 21,
      "6": 22,
      "7": 23,
      "8": 24,
      "9": 25,
      ":": 26,
      ";": 27,
      "<": 28,
      "=": 29,
      ">": 30,
      "?": 31,
      "@": 32,
      "A": 33,
      "B": 34,
      "C": 35,
      "D": 36,
      "E": 37,
      "F": 38,
      "G": 39,
      "H": 40,
      "I": 41,
      "J": 42,
      "K": 43,
      "L": 44,
      "M": 45,
      "N": 46,
      "O": 47,
      "P": 48,
      "Q": 49,
      "R": 50,
      "S": 51,
      "T": 52,
      "U": 53,
      "V": 54,
      "W": 55,
      "X": 56,
      "Y": 57,
      "Z": 58,
      "[": 59,
      "\\": 60,
      "]": 61,
      "^": 62,
      "_": 63,
      "`": 64,
      "a": 65,
      "b": 66,
      "c": 67,
      "d": 68,
      "e": 69,
      "f": 70,
      "g": 71,
      "h": 72,
      "i": 73,
      "j": 74,
      "k": 75,
      "l": 76,
      "m": 77,
      "n": 78,
      "o": 79,
      "p": 80,
      "q": 81,
      "r": 82,
      "s": 83,
      "t": 84,
      "u": 85,
      "v": 86,
      "w": 87,
      "x": 88,
      "y": 89,
      "z": 90,
      "{": 91,
      "|": 92,
      "}": 93,
      "~": 94,
      "¡": 95,
      "¢": 96,
      "£": 97,
      "¤": 98,
      "¥": 99,
      "¦": 100,
      "§": 101,
      "¨": 102,
      "©": 103,
      "ª": 104,
      "«": 105,
      "¬": 106,
      "®": 107,
      "¯": 108,
      "°": 109,
      "±": 110,
      "²": 111,
      "³": 112,
      "´": 113,
      "µ": 114,
      "¶": 115,
      "·": 116,
      "¸": 117,
      "¹": 118,
      "º": 119,
      "»": 120,
      "¼": 121,
      "½": 122,
      "¾": 123,
      "¿": 124,
      "À": 125,
      "Á": 126,
      "Â": 127,
      "Ã": 128,
      "Ä": 129,
      "Å": 130,
      "Æ": 131,
      "Ç": 132,
      "È": 133,
      "É": 134,
      "Ê": 135,
      "Ë": 136,
      "Ì": 137,
      "Í": 138,
      "Î": 139,
      "Ï": 140,
      "Ð": 141,
      "Ñ": 142,
      "Ò": 143,
      "Ó": 144,
      "Ô": 145,
      "Õ": 146,
      "Ö": 147,
      "×": 148,
      "Ø": 149,
      "Ù": 150,
      "Ú": 151,
      "Û": 152,
      "Ü": 153,
      "Ý": 154,
      "Þ": 155,
      "ß": 156,
      "à": 157,
      "á": 158,
      "â": 159,
      "ã": 160,
      "ä": 161,
      "å": 162,
      "æ": 163,
      "ç": 164,
      "è": 165,
      "é": 166,
      "ê": 167,
      "ë": 168,
      "ì": 169,
      "í": 170,
      "î": 171,
      "ï": 172,
      "ð": 173,
      "ñ": 174,
      "ò": 175,
      "ó": 176,
      "ô": 177,
      "õ": 178,
      "ö": 179,
      "÷": 180,
      "ø": 181,
      "ù": 182,
      "ú": 183,
      "û": 184,
      "ü": 185,
      "ý": 186,
      "þ": 187,
      "ÿ": 188,
      "Ā": 189,
      "ā": 190,
      "Ă": 191,
      "ă": 192,
      "Ą": 193,
      "ą": 194,
      "Ć": 195,
      "ć": 196,
      "Ĉ": 197,
      "ĉ": 198,
      "Ċ": 199,
      "ċ": 200,
      "Č": 201,
      "č": 202,
      "Ď": 203,
      "ď": 204,
      "Đ": 205,
      "đ": 206,
      "Ē": 207,
      "ē": 208,
      "Ĕ": 209,
      "ĕ": 210,
      "Ė": 211,
      "ė": 212,
      "Ę": 213,
      "ę": 214,
      "Ě": 215,
      "ě": 216,
      "Ĝ": 217,
      "ĝ": 218,
      "Ğ": 219,
      "ğ": 220,
      "Ġ": 221,
      "ġ": 222,
      "Ģ": 223,
      "ģ": 224,
      "Ĥ": 225,
      "ĥ": 226,
      "Ħ": 227,
      "ħ": 228,
      "Ĩ": 229,
      "ĩ": 230,
      "Ī": 231,
      "ī": 232,
      "Ĭ": 233,
      "ĭ": 234,
      "Į": 235,
      "į": 236,
      "İ": 237,
      "ı": 238,
      "Ĳ": 239,
      "ĳ": 240,
      "Ĵ": 241,
      "ĵ": 242,
      "Ķ": 243,
      "ķ": 244,
      "ĸ": 245,
      "Ĺ": 246,
      "ĺ": 247,
      "Ļ": 248,
      "ļ": 249,
      "Ľ": 250,
      "ľ": 251,
      "Ŀ": 252,
      "ŀ": 253,
      "Ł": 254,
      "ł": 255,
      "Ń": 256,
      "Ġa": 257,
      "in": 258,
      "re": 259,
      "Ġt": 260,
      "Ġs": 261,
      "ti": 262,
      "ou": 263,
      "on": 264,
      "nd": 265,
      "or": 266,
      "he": 267,
      "Ġand": 268,
      "al": 269,
      "ing": 270,
      "Ġf": 271,
      "es": 272,
      "at": 273,
      "Ġc": 274,
      "er": 275,
      "Ġw": 276,
      "Ġm": 277,
      "Ġy": 278,
      "en": 279,
      "Ġp": 280,
      "Ġyou": 281,
      "an": 282,
      "it": 283,
      "Ġb": 284,
      "ut": 285,
      "Ġto": 286,
      "tion": 287,
      "le": 288,
      "st": 289,
      "Ġd": 290,
      "Ġre": 291,
      "uc": 292,
      "Ġyour": 293,
      "Ġo": 294,
      "ar": 295,
      "ve": 296,
      "Ġe": 297,
      "is": 298,
      "ro": 299,
      "Ġhe": 300,
      "Ġin": 301,
      "et": 302,
      "im": 303,
      "ed": 304,
      "Ġthe": 305,
      "ke": 306,
      "Ġof": 307,
      "th": 308,
      "Ġfor": 309,
      "Ġg": 310,
      "ic": 311,
      "ent": 312,
      "Ġst": 313,
      "ra": 314,
      "Ġl": 315,
      "Ġh": 316,
      "alth": 317,
      "Ġcan": 318,
      "Ġor": 319,
      "In": 320,
      "ay": 321,
      "ul": 322,
      "om": 323,
      "Ġhealth": 324,
      "hat": 325,
      "od": 326,
      "el": 327,
      "ow": 328,
      "put": 329,
      "str": 330,
      "Ġn": 331,
      "out": 332,
      "uction": 333,
      "cti": 334,
      "Ġpro": 335,
      "Out": 336,
      "Instr": 337,
      "Output": 338,
      "Instruction": 339,
      "us": 340,
      "si": 341,
      "ate": 342,
      "ake": 343,
      "gh": 344,
      "il": 345,
      "ain": 346,
      "ĠI": 347,
      "ation": 348,
      "ab": 349,
      "ep": 350,
      "Ġfo": 351,
      "ĠS": 352,
      "ri": 353,
      "ĠT": 354,
      "Ġon": 355,
      "ch": 356,
      "Ġex": 357,
      "Ġ1": 358,
      "ĠE": 359,
      "ess": 360,
      "Ġare": 361,
      "as": 362,
      "ĠA": 363,
      "ce": 364,
      "res": 365,
      "Ġas": 366,
      "Ġhealthy": 367,
      "erc": 368,
      "ly": 369,
      "âĢ": 370,
      "Ġli": 371,
      "ercis": 372,
      "Ġsu": 373,
      "Ġwit": 374,
      "Ġwith": 375,
      "id": 376,
      "por": 377,
      "ĠW": 378,
      "lp": 379,
      "ind": 380,
      "Ġdi": 381,
      "Ġhelp": 382,
      "ĠM": 383,
      "Ġthat": 384,
      "Ġim": 385,
      "ĠH": 386,
      "fe": 387,
      "Ġen": 388,
      "ver": 389,
      "ĠC": 390,
      "ork": 391,
      "ol": 392,
      "duc": 393,
      "Ġcon": 394,
      "ity": 395,
      "ome": 396,
      "Ġtim": 397,
      "un": 398,
      "elf": 399,
      "ght": 400,
      "ercise": 401,
      "ir": 402,
      "ress": 403,
      "iti": 404,
      "ĠP": 405,
      "ec": 406,
      "ular": 407,
      "ge": 408,
      "ks": 409,
      "als": 410,
      "Ġal": 411,
      "Ġwork": 412,
      "Ġan": 413,
      "Ġtime": 414,
      "te": 415,
      "ur": 416,
      "Ġr": 417,
      "gular": 418,
      "qu": 419,
      "se": 420,
      "ter": 421,
      "Ġacti": 422,
      "Ġwh": 423,
      "Ġpo": 424,
      "Ġday": 425,
      "uch": 426,
      "ĠHow": 427,
      "king": 428,
      "Ġsome": 429,
      "Ġreduc": 430,
      "Ġbe": 431,
      "cus": 432,
      "tain": 433,
      "Ġle": 434,
      "Ġis": 435,
      "Ġth": 436,
      "Ġmo": 437,
      "am": 438,
      "ment": 439,
      "Ġgo": 440,
      "Ġfood": 441,
      "ĠWhat": 442,
      "its": 443,
      "tive": 444,
      "ac": 445,
      "Ġbre": 446,
      "ight": 447,
      "ĠR": 448,
      "Ġsuch": 449,
      "ffe": 450,
      "ies": 451,
      "mo": 452,
      "ness": 453,
      "Ġit": 454,
      "âĢĻ": 455,
      "port": 456,
      "ĠD": 457,
      "ine": 458,
      "Ġinc": 459,
      "ful": 460,
      "Ġch": 461,
      "lo": 462,
      "Ġactiv": 463,
      "ure": 464,
      "ple": 465,
      "rou": 466,
      "ze": 467,
      "ating": 468,
      "Ġmy": 469,
      "Ġrel": 470,
      "Ġregular": 471,
      "if": 472,
      "Ġint": 473,
      "ody": 474,
      "pro": 475,
      "self": 476,
      "aintain": 477,
      "ĠB": 478,
      "our": 479,
      "Ġwe": 480,
      "leep": 481,
      "Ġyourself": 482,
      "racti": 483,
      "ins": 484,
      "her": 485,
      "Ġmaintain": 486,
      "Ġbody": 487,
      "Ġreduce": 488,
      "ad": 489,
      "alan": 490,
      "est": 491,
      "Ġha": 492,
      "Ġexercise": 493,
      "ga": 494,
      "Ġv": 495,
      "all": 496,
      "Ġstress": 497,
      "Ġdiet": 498,
      "Ġne": 499,
      "Ġfocus": 500,
      "Ġsleep": 501,
      "ĠG": 502,
      "Ġfe": 503,
      "Ġde": 504,
      "able": 505,
      "Ġlike": 506,
      "ĠMake": 507,
      "oo": 508,
      "ps": 509,
      "ting": 510,
      "ill": 511,
      "ru": 512,
      "hen": 513,
      "Ġmind": 514,
      "ana": 515,
      "Ġfoods": 516,
      "ren": 517,
      "ated": 518,
      "Ġmin": 519,
      "rom": 520,
      "ci": 521,
      "ud": 522,
      "ĠĊ": 523,
      "Ġout": 524,
      "Ġat": 525,
      "Ġbalan": 526,
      "ell": 527,
      "Ġimpro": 528,
      "ĠF": 529,
      "ant": 530,
      "ĠTake": 531,
      "hy": 532,
      "oid": 533,
      "void": 534,
      "Ġfrom": 535,
      "Ġpl": 536,
      "art": 537,
      "abl": 538,
      "ĠSt": 539,
      "ities": 540,
      "ax": 541,
      "Ġcom": 542,
      "Ġway": 543,
      "Ġme": 544,
      "Ġdo": 545,
      "Ġsup": 546,
      "are": 547,
      "tiv": 548,
      "Ġwal": 549,
      "utes": 550,
      "ctive": 551,
      "ĠEx": 552,
      "very": 553,
      "Ġgoals": 554,
      "get": 555,
      "Ġso": 556,
      "Ġwill": 557,
      "Ġmana": 558,
      "Ġeffe": 559,
      "rior": 560,
      "Ġrout": 561,
      "di": 562,
      "pec": 563,
      "rate": 564,
      "ther": 565,
      "Ġwell": 566,
      "Ġpracti": 567,
      "Ġover": 568,
      "ical": 569,
      "ations": 570,
      "Ġworkout": 571,
      "Ġbrea": 572,
      "Ġrelax": 573,
      "em": 574,
      "hing": 575,
      "tic": 576,
      "Ġmed": 577,
      "Ġby": 578,
      "Ġroutine": 579,
      "um": 580,
      "ven": 581,
      "Ġve": 582,
      "Ġad": 583,
      "ers": 584,
      "Ġpre": 585,
      "tions": 586,
      "Ġminutes": 587,
      "end": 588,
      "gies": 589,
      "ts": 590,
      "Ġnut": 591,
      "Ġprote": 592,
      "ĠExercise": 593,
      "Ġeffective": 594,
      "rioriti": 595,
      "ach": 596,
      "sical": 597,
      "Ġmus": 598,
      "enti": 599,
      "Ġget": 600,
      "Ġposi": 601,
      "hysical": 602,
      "ces": 603,
      "up": 604,
      "reen": 605,
      "Ġtra": 606,
      "Ġall": 607,
      "Ġactivities": 608,
      "ie": 609,
      "Ġke": 610,
      "Ġfru": 611,
      "ily": 612,
      "Ġhave": 613,
      "Ġmindful": 614,
      "Ġveget": 615,
      "ast": 616,
      "ced": 617,
      "ving": 618,
      "vent": 619,
      "Ġfat": 620,
      "Ġphysical": 621,
      "Ġinto": 622,
      "Ġweight": 623,
      "Ġneed": 624,
      "Ġimprove": 625,
      "rioritize": 626,
      "Ġsc": 627,
      "Ġself": 628,
      "ong": 629,
      "ance": 630,
      "ary": 631,
      "ich": 632,
      "Ġstay": 633,
      "Ġhab": 634,
      "sion": 635,
      "ĠSet": 636,
      "Ġsure": 637,
      "Ġthrou": 638,
      "ĠGet": 639,
      "Ġthrough": 640,
      "ges": 641,
      "ips": 642,
      "ry": 643,
      "Ġj": 644,
      "ĠIn": 645,
      "ret": 646,
      "Ġte": 647,
      "Ġcar": 648,
      "Ġwhen": 649,
      "ental": 650,
      "ĠEat": 651,
      "ase": 652,
      "Ġwho": 653,
      "be": 654,
      "ble": 655,
      "ging": 656,
      "ore": 657,
      "vid": 658,
      "ĠU": 659,
      "Ġsh": 660,
      "itation": 661,
      "itness": 662,
      "Ġeating": 663,
      "Ġnutri": 664,
      "Ġmusc": 665,
      "Ġpositive": 666,
      "Ġfruits": 667,
      "Ġhabits": 668,
      "co": 669,
      "iet": 670,
      "oga": 671,
      "Ġqu": 672,
      "Ġif": 673,
      "Ġsy": 674,
      "orpor": 675,
      "Ġmental": 676,
      "Ġgra": 677,
      "âĢĵ": 678,
      "Ġbreat": 679,
      "ĠRe": 680,
      "ables": 681,
      "Ġprevent": 682,
      "ĠL": 683,
      "ings": 684,
      "Ġstrate": 685,
      "Ġstret": 686,
      "Ġactivity": 687,
      "Ġways": 688,
      "Ġvegetables": 689,
      "Ġstrategies": 690,
      "'s": 691,
      "ct": 692,
      "lud": 693,
      "os": 694,
      "pt": 695,
      "Ġfitness": 696,
      "ater": 697,
      "Ġcle": 698,
      "erg": 699,
      "Ġmake": 700,
      "Ġprog": 701,
      "ĠCh": 702,
      "Ġbalanced": 703,
      "Ġbreaks": 704,
      "aking": 705,
      "cess": 706,
      "care": 707,
      "du": 708,
      "ust": 709,
      "ĠY": 710,
      "Ġus": 711,
      "one": 712,
      "ally": 713,
      "Ġother": 714,
      "ish": 715,
      "Ġthem": 716,
      "sist": 717,
      "chn": 718,
      "Ġexercis": 719,
      "ĠAvoid": 720,
      "ĠCon": 721,
      "Ġregularly": 722,
      "Ġsupport": 723,
      "Ġworkouts": 724,
      "Ġmeditation": 725,
      "Ġtechn": 726,
      "being": 727,
      "Ġaf": 728,
      "ough": 729,
      "ise": 730,
      "Ġno": 731,
      "sid": 732,
      "Ġany": 733,
      "ific": 734,
      "Ġfeel": 735,
      "Ġmanage": 736,
      "Ġkeep": 737,
      "orporate": 738,
      "ck": 739,
      "ek": 740,
      "for": 741,
      "ten": 742,
      "Ġup": 743,
      "reate": 744,
      "ound": 745,
      "Ġyoga": 746,
      "vel": 747,
      "ild": 748,
      "Ġimport": 749,
      "Ġinclud": 750,
      "Ġmaintaining": 751,
      "reng": 752,
      "Ġrelaxation": 753,
      "and": 754,
      "eo": 755,
      "ize": 756,
      "mun": 757,
      "per": 758,
      "vir": 759,
      "yd": 760,
      "Ġsn": 761,
      "Ġset": 762,
      "Ġcl": 763,
      "Ġeach": 764,
      "Ġpromo": 765,
      "ching": 766,
      "Ġlife": 767,
      "ĠFo": 768,
      "Ġsoci": 769,
      "Ġoverall": 770,
      "Ġimportant": 771,
      "ile": 772,
      "rin": 773,
      "ĠO": 774,
      "ĠâĢĵ": 775,
      "Ġac": 776,
      "rease": 777,
      "oun": 778,
      "onment": 779,
      "Ġper": 780,
      "Ġbut": 781,
      "Ġhow": 782,
      "ĠTh": 783,
      "ĠAim": 784,
      "Ġwhich": 785,
      "Ġfew": 786,
      "Ġmeals": 787,
      "Ġwhole": 788,
      "Ġmuscle": 789,
      "iety": 790,
      "Ġbreathing": 791,
      "vironment": 792,
      "Ġsocial": 793,
      "ist": 794,
      "iqu": 795,
      "og": 796,
      "Ġab": 797,
      "Ġair": 798,
      "reat": 799,
      "Ġtake": 800,
      "Ġda": 801,
      "velo": 802,
      "Ġevery": 803,
      "Ġprovid": 804,
      "ĠIt": 805,
      "chie": 806,
      "Ġenvironment": 807,
      "Ġwhile": 808,
      "Ġmotiv": 809,
      "oose": 810,
      "Ġwalk": 811,
      "ential": 812,
      "Ġfats": 813,
      "Ġthroughout": 814,
      "Ġexercises": 815,
      "Ġsnac": 816,
      "velop": 817,
      "fore": 818,
      "ib": 819,
      "low": 820,
      "ning": 821,
      "Ġachie": 822,
      "Ġsk": 823,
      "Ġsp": 824,
      "Ġspec": 825,
      "Ġcal": 826,
      "itam": 827,
      "Ġbet": 828,
      "Ġeven": 829,
      "ents": 830,
      "Ġlif": 831,
      "uring": 832,
      "ĠBe": 833,
      "Ġtechniqu": 834,
      "ĠThis": 835,
      "Ġtechniques": 836,
      "uild": 837,
      "Ġ-": 838,
      "Ġavoid": 839,
      "ining": 840,
      "Ġsmo": 841,
      "tim": 842,
      "ous": 843,
      "hedu": 844,
      "ard": 845,
      "Ġstreng": 846,
      "ĠEn": 847,
      "ass": 848,
      "ĠAd": 849,
      "âĢ¢": 850,
      "Ġhelps": 851,
      "Ġmore": 852,
      "round": 853,
      "Ġbalance": 854,
      "Ġplan": 855,
      "Ġproteins": 856,
      "ĠRegular": 857,
      "Ġprogress": 858,
      "Ġdaily": 859,
      "Ġspecific": 860,
      "hedule": 861,
      "eep": 862,
      "ive": 863,
      "oy": 864,
      "ron": 865,
      "we": 866,
      "yle": 867,
      "ĠK": 868,
      "ĠV": 869,
      "Ġk": 870,
      "Ġtips": 871,
      "Ġsm": 872,
      "atur": 873,
      "Ġwhat": 874,
      "Ġduring": 875,
      "Ġreco": 876,
      "Ġop": 877,
      "aries": 878,
      "isk": 879,
      "ration": 880,
      "Ġsug": 881,
      "Ġreducing": 882,
      "Ġleast": 883,
      "Ġlevel": 884,
      "Ġincrease": 885,
      "Ġweek": 886,
      "estyle": 887,
      "Ġdeep": 888,
      "Ġprotein": 889,
      "Ġscreen": 890,
      "ĠInc": 891,
      "ĠUse": 892,
      "Ġgrains": 893,
      "ergy": 894,
      "sistent": 895,
      "Ġafter": 896,
      "oundaries": 897,
      "Ġpromote": 898,
      "ĠFocus": 899,
      "Ġmotivated": 900,
      "Ġlifestyle": 901,
      "ace": 902,
      "ig": 903,
      "iz": 904,
      "joy": 905,
      "Ġess": 906,
      "Ġtaking": 907,
      "ality": 908,
      "Ġche": 909,
      "Ġwater": 910,
      "Ġprioritize": 911,
      "Ġpeo": 912,
      "stem": 913,
      "Ġres": 914,
      "Ġrest": 915,
      "ice": 916,
      "ices": 917,
      "Ġlong": 918,
      "Ġhour": 919,
      "Ġhyd": 920,
      "Ġprocess": 921,
      "ĠEating": 922,
      "Ġenough": 923,
      "ĠPracti": 924,
      "ĠPrioritize": 925,
      "Ġpost": 926,
      "Ġdays": 927,
      "Ġbefore": 928,
      "Ġlean": 929,
      "Ġintake": 930,
      "Ġvar": 931,
      "Ġmanaging": 932,
      "Ġpractice": 933,
      "Ġcarb": 934,
      "Ġsystem": 935,
      "Ġclean": 936,
      "ĠChoose": 937,
      "Ġskin": 938,
      "Ġessential": 939,
      "Ġpeople": 940,
      "'t": 941,
      "ming": 942,
      "sure": 943,
      "Ġun": 944,
      "Ġaw": 945,
      "Ġse": 946,
      "hes": 947,
      "tional": 948,
      "Ġrem": 949,
      "Ġheart": 950,
      "Ġthere": 951,
      "Ġnight": 952,
      "Ġproduc": 953,
      "ility": 954,
      "ĠTry": 955,
      "Ġimmun": 956,
      "Ġenjoy": 957,
      "Ġcont": 958,
      "Ġconsistent": 959,
      "ments": 960,
      "Ġincorporate": 961,
      "Ġwalking": 962,
      "ationsh": 963,
      "Ġprovide": 964,
      "Ġsmall": 965,
      "ak": 966,
      "air": 967,
      "ction": 968,
      "gan": 969,
      "ld": 970,
      "op": 971,
      "so": 972,
      "ves": 973,
      "vol": 974,
      "Ġap": 975,
      "ors": 976,
      "ens": 977,
      "Ġbuild": 978,
      "Ġdon": 979,
      "Ġemo": 980,
      "Ġhi": 981,
      "ĠIf": 982,
      "Ġdiffe": 983,
      "Ġenergy": 984,
      "oll": 985,
      "Ġactive": 986,
      "Ġmove": 987,
      "Ġrelationsh": 988,
      "rent": 989,
      "ablish": 990,
      "Ġgetting": 991,
      "Ġmindfulness": 992,
      "sider": 993,
      "ount": 994,
      "Ġabout": 995,
      "Ġsnacks": 996,
      "ronic": 997,
      "ĠKeep": 998,
      "Ġlevels": 999,
      "Ġprocessed": 1000,
      "ĠPractice": 1001,
      "ear": 1002,
      "fy": 1003,
      "now": 1004,
      "ssi": 1005,
      "Ġtas": 1006,
      "til": 1007,
      "Ġfri": 1008,
      "Ġfind": 1009,
      "Ġfam": 1010,
      "ession": 1011,
      "Ġcreate": 1012,
      "Ġmod": 1013,
      "Ġpoll": 1014,
      "Ġbed": 1015,
      "Ġdise": 1016,
      "Ġem": 1017,
      "istic": 1018,
      "imit": 1019,
      "Ġoff": 1020,
      "ases": 1021,
      "Ġcondi": 1022,
      "Ġrisk": 1023,
      "tern": 1024,
      "act": 1025,
      "Ġchronic": 1026,
      "ĠStart": 1027,
      "dio": 1028,
      "pect": 1029,
      "Ġpractic": 1030,
      "ends": 1031,
      "Ġtraining": 1032,
      "Ġneeds": 1033,
      "Ġimmune": 1034,
      "Ġfamily": 1035,
      "age": 1036,
      "cou": 1037,
      "com": 1038,
      "ead": 1039,
      "gg": 1040,
      "hol": 1041,
      "les": 1042,
      "nec": 1043,
      "ot": 1044,
      "rated": 1045,
      "vable": 1046,
      "Ġ(": 1047,
      "Ġaround": 1048,
      "Ġsim": 1049,
      "Ġsom": 1050,
      "orning": 1051,
      "alk": 1052,
      "Ġful": 1053,
      "Ġfres": 1054,
      "Ġclo": 1055,
      "Ġpers": 1056,
      "Ġboundaries": 1057,
      "Ġref": 1058,
      "Ġreal": 1059,
      "Ġey": 1060,
      "rol": 1061,
      "Ġinvol": 1062,
      "ething": 1063,
      "Ġgu": 1064,
      "Ġgreat": 1065,
      "Ġstep": 1066,
      "althy": 1067,
      "Ġnatur": 1068,
      "ĠAre": 1069,
      "ĠPl": 1070,
      "ĠPro": 1071,
      "Ġalso": 1072,
      "Ġpossi": 1073,
      "ack": 1074,
      "Ġvitam": 1075,
      "Ġdevelop": 1076,
      "Ġcomple": 1077,
      "Ġbreak": 1078,
      "Ġcardio": 1079,
      "Ġquality": 1080,
      "Ġstretching": 1081,
      "Ġusing": 1082,
      "Ġinclude": 1083,
      "Ġstrength": 1084,
      "Ġrecovery": 1085,
      "Ġhydrated": 1086,
      "Ġvariety": 1087,
      "Ġremind": 1088,
      "Ġproducts": 1089,
      "Ġdifferent": 1090,
      "Ġfriends": 1091,
      "coura": 1092,
      "Ġsomething": 1093,
      "Ġpossible": 1094,
      "just": 1095,
      "ms": 1096,
      "ob": 1097,
      "rong": 1098,
      "Ġ3": 1099,
      "Ġri": 1100,
      "rest": 1101,
      "Ġtw": 1102,
      "ould": 1103,
      "ones": 1104,
      "Ġfun": 1105,
      "Ġca": 1106,
      "Ġph": 1107,
      "Ġblo": 1108,
      "lex": 1109,
      "stead": 1110,
      "arity": 1111,
      "Ġgreen": 1112,
      "Ġlos": 1113,
      "sive": 1114,
      "ĠThe": 1115,
      "Ġexp": 1116,
      "Ġexam": 1117,
      "Ġlist": 1118,
      "Ġimp": 1119,
      "Ġensure": 1120,
      "urn": 1121,
      "Ġthings": 1122,
      "Ġmost": 1123,
      "ĠDe": 1124,
      "Ġfocusing": 1125,
      "ook": 1126,
      "Ġallow": 1127,
      "Ġneeded": 1128,
      "Ġschedule": 1129,
      "cohol": 1130,
      "ĠYour": 1131,
      "Ġclarity": 1132,
      "rink": 1133,
      "Ġacc": 1134,
      "Ġachievable": 1135,
      "Ġhours": 1136,
      "Ġposture": 1137,
      "Ġcarbs": 1138,
      "Ġaway": 1139,
      "Ġemotional": 1140,
      "Ġrealistic": 1141,
      "Ġnatural": 1142,
      "'m": 1143,
      "ches": 1144,
      "do": 1145,
      "equ": 1146,
      "mpt": 1147,
      "ran": 1148,
      "Ġest": 1149,
      "Ġtry": 1150,
      "Ġslow": 1151,
      "tit": 1152,
      "onit": 1153,
      "ates": 1154,
      "ather": 1155,
      "Ġcol": 1156,
      "Ġwhe": 1157,
      "Ġmorning": 1158,
      "Ġread": 1159,
      "uce": 1160,
      "ark": 1161,
      "educe": 1162,
      "Ġgrou": 1163,
      "Ġlow": 1164,
      "Ġlun": 1165,
      "oms": 1166,
      "Ġnec": 1167,
      "Ġsun": 1168,
      "portive": 1169,
      "Ġdist": 1170,
      "Ġcons": 1171,
      "Ġtimes": 1172,
      "Ġalcohol": 1173,
      "Ġgood": 1174,
      "ĠReduce": 1175,
      "ĠDon": 1176,
      "ources": 1177,
      "allen": 1178,
      "Ġimproving": 1179,
      "ĠFind": 1180,
      "Ġsupportive": 1181,
      "Ġpractices": 1182,
      "entify": 1183,
      "Ġshould": 1184,
      "Ġnutrients": 1185,
      "Ġsympt": 1186,
      "Ġclear": 1187,
      "Ġnot": 1188,
      "side": 1189,
      "Ġbetwe": 1190,
      "Ġsmoking": 1191,
      "Ġknow": 1192,
      "Ġsugar": 1193,
      "ign": 1194,
      "Ġhigh": 1195,
      "Ġrelationships": 1196,
      "Ġtasks": 1197,
      "Ġfresh": 1198,
      "Ġperson": 1199,
      "Ġ30": 1200,
      "Ġfunction": 1201,
      "equate": 1202,
      "onitor": 1203,
      "Ġsymptoms": 1204,
      "Ġbetween": 1205,
      "av": 1206,
      "ail": 1207,
      "cy": 1208,
      "ctions": 1209,
      "fic": 1210,
      "ger": 1211,
      "ial": 1212,
      "ling": 1213,
      "me": 1214,
      "pe": 1215,
      "ues": 1216,
      "xiety": 1217,
      "Ġam": 1218,
      "ree": 1219,
      "Ġsources": 1220,
      "healthy": 1221,
      "Ġflex": 1222,
      "ats": 1223,
      "Ġmay": 1224,
      "Ġpain": 1225,
      "ute": 1226,
      "Ġtox": 1227,
      "Ġreg": 1228,
      "Ġstrong": 1229,
      "own": 1230,
      "Ġproper": 1231,
      "essary": 1232,
      "ased": 1233,
      "indful": 1234,
      "ĠMindful": 1235,
      "ĠCreate": 1236,
      "Ġaltern": 1237,
      "Ġworking": 1238,
      "Ġanxiety": 1239,
      "urt": 1240,
      "Ġgoing": 1241,
      "ĠRes": 1242,
      "ĠDrink": 1243,
      "Ġchan": 1244,
      "Ġchallen": 1245,
      "gative": 1246,
      "Ġnegative": 1247,
      "Ġoutdo": 1248,
      "ĠStay": 1249,
      "Ġadv": 1250,
      "Ġtrack": 1251,
      "Ġnutrition": 1252,
      "ĠLimit": 1253,
      "Ġstretches": 1254,
      "Ġuse": 1255,
      "ĠCons": 1256,
      "ibility": 1257,
      "Ġbetter": 1258,
      "ĠIncorporate": 1259,
      "Ġapp": 1260,
      "Ġmoder": 1261,
      "Ġconditions": 1262,
      "Ġpractical": 1263,
      "Ġsimple": 1264,
      "Ġfull": 1265,
      "courage": 1266,
      "Ġblood": 1267,
      "Ġloss": 1268,
      "Ġimpact": 1269,
      "Ġestablish": 1270,
      "ative": 1271,
      "ber": 1272,
      "cent": 1273,
      "der": 1274,
      "fession": 1275,
      "und": 1276,
      "ww": 1277,
      "work": 1278,
      "ines": 1279,
      "Ġty": 1280,
      "Ġtri": 1281,
      "Ġsqu": 1282,
      "Ġstic": 1283,
      "Ġco": 1284,
      "Ġcer": 1285,
      "Ġwww": 1286,
      "ene": 1287,
      "ence": 1288,
      "ense": 1289,
      "ital": 1290,
      "Ġbest": 1291,
      "Ġdes": 1292,
      "arm": 1293,
      "Ġend": 1294,
      "Ġeat": 1295,
      "Ġinte": 1296,
      "imming": 1297,
      "ick": 1298,
      "enty": 1299,
      "rap": 1300,
      "rain": 1301,
      "Ġhun": 1302,
      "Ġorgan": 1303,
      "ultiv": 1304,
      "ods": 1305,
      "Ġprofession": 1306,
      "Ġext": 1307,
      "Ġ10": 1308,
      "Ġlight": 1309,
      "ids": 1310,
      "Ġdig": 1311,
      "ĠMed": 1312,
      "Ġenga": 1313,
      "ĠCan": 1314,
      "Ġconnec": 1315,
      "Ġrun": 1316,
      "term": 1317,
      "Ġthan": 1318,
      "Ġthis": 1319,
      "Ġcho": 1320,
      "ĠBre": 1321,
      "Ġdev": 1322,
      "cium": 1323,
      "ude": 1324,
      "Ġatten": 1325,
      "Ġplenty": 1326,
      "Ġdoing": 1327,
      "Ġadequate": 1328,
      "Ġkey": 1329,
      "Ġjust": 1330,
      "Ġmuscles": 1331,
      "Ġnoise": 1332,
      "Ġenvironmental": 1333,
      "Ġdiseases": 1334,
      "Ġemp": 1335,
      "Ġguid": 1336,
      "Ġvitamins": 1337,
      "Ġright": 1338,
      "Ġphone": 1339,
      "ĠDevelop": 1340,
      "titude": 1341,
      "Ġreading": 1342,
      "Ġnecessary": 1343,
      "Ġdistra": 1344,
      "Ġflexibility": 1345,
      "ĠMindfulness": 1346,
      "Ġchanges": 1347,
      "Ġtrigg": 1348,
      "Ġstick": 1349,
      "Ġcertain": 1350,
      "Ġinterest": 1351,
      "Ġprofessional": 1352,
      "Ġattention": 1353,
      "Qu": 1354,
      "brate": 1355,
      "cular": 1356,
      "chedule": 1357,
      "ele": 1358,
      "fir": 1359,
      "io": 1360,
      "line": 1361,
      "mend": 1362,
      "ner": 1363,
      "pend": 1364,
      "sc": 1365,
      "ty": 1366,
      "tec": 1367,
      "then": 1368,
      "ups": 1369,
      "vas": 1370,
      "ward": 1371,
      "wimming": 1372,
      "ĠN": 1373,
      "Ġro": 1374,
      "Ġund": 1375,
      "ĠQu": 1376,
      "Ġsit": 1377,
      "Ġswimming": 1378,
      "Ġmom": 1379,
      "Ġmuch": 1380,
      "ency": 1381,
      "Ġbus": 1382,
      "Ġbone": 1383,
      "Ġbene": 1384,
      "Ġdis": 1385,
      "Ġdrin": 1386,
      "Ġrecom": 1387,
      "Ġgl": 1388,
      "Ġlim": 1389,
      "Ġhome": 1390,
      "Ġorder": 1391,
      "ult": 1392,
      "Ġhealthcare": 1393,
      "atea": 1394,
      "ĠSchedule": 1395,
      "ĠSpend": 1396,
      "Ġone": 1397,
      "Ġ15": 1398,
      "ĠEven": 1399,
      "ĠWear": 1400,
      "Ġdiges": 1401,
      "ĠHe": 1402,
      "oles": 1403,
      "Ġcontain": 1404,
      "Ġconsider": 1405,
      "Ġconcent": 1406,
      "plements": 1407,
      "Ġhair": 1408,
      "Ġnew": 1409,
      "ĠGo": 1410,
      "ĠStress": 1411,
      "Ġcomput": 1412,
      "Ġmedic": 1413,
      "Ġadd": 1414,
      "Ġnuts": 1415,
      "Ġfatty": 1416,
      "Ġquick": 1417,
      "ĠYou": 1418,
      "ĠConsider": 1419,
      "form": 1420,
      "fort": 1421,
      "Ġincludes": 1422,
      "Ġclass": 1423,
      "Ġcalcium": 1424,
      "itamin": 1425,
      "time": 1426,
      "Ġoptions": 1427,
      "Ġscreenings": 1428,
      "Ġchem": 1429,
      "akes": 1430,
      "Ġmovement": 1431,
      "Ġbedtime": 1432,
      "Ġcardiovas": 1433,
      "Ġtwo": 1434,
      "Ġexpos": 1435,
      "Ġexample": 1436,
      "Ġlisten": 1437,
      "Ġgroups": 1438,
      "Ġpersonal": 1439,
      "Ġamount": 1440,
      "ĠRespect": 1441,
      "Ġsquats": 1442,
      "Ġdesk": 1443,
      "Ġdigital": 1444,
      "Ġchoices": 1445,
      "elebrate": 1446,
      "Ġunder": 1447,
      "Ġrecommend": 1448,
      "Ġcardiovascular": 1449,
      "cc": 1450,
      "cer": 1451,
      "dentify": 1452,
      "go": 1453,
      "ip": 1454,
      "ier": 1455,
      "ials": 1456,
      "mon": 1457,
      "niti": 1458,
      "nam": 1459,
      "pl": 1460,
      "ution": 1461,
      "wn": 1462,
      "Ġid": 1463,
      "Ġag": 1464,
      "Ġaer": 1465,
      "inate": 1466,
      "Ġtran": 1467,
      "Ġsport": 1468,
      "Ġstil": 1469,
      "tious": 1470,
      "ought": 1471,
      "ort": 1472,
      "orie": 1473,
      "Ġfl": 1474,
      "Ġcultiv": 1475,
      "Ġmater": 1476,
      "Ġpres": 1477,
      "any": 1478,
      "Ġbi": 1479,
      "Ġbr": 1480,
      "Ġtoo": 1481,
      "ster": 1482,
      "stand": 1483,
      "steo": 1484,
      "Ġrele": 1485,
      "Ġosteo": 1486,
      "ved": 1487,
      "Ġel": 1488,
      "row": 1489,
      "Ġindi": 1490,
      "Ġinstead": 1491,
      "ime": 1492,
      "Ġtheir": 1493,
      "Ġthese": 1494,
      "Ġgain": 1495,
      "Ġgive": 1496,
      "icals": 1497,
      "Ġlo": 1498,
      "Ġlate": 1499,
      "ults": 1500,
      "ely": 1501,
      "Ġnour": 1502,
      "Ġproble": 1503,
      "Ġprotec": 1504,
      "ilates": 1505,
      "ĠIdentify": 1506,
      "ept": 1507,
      "rib": 1508,
      "ĠAn": 1509,
      "ĠAs": 1510,
      "Ġliving": 1511,
      "ĠWork": 1512,
      "ĠWhen": 1513,
      "ĠMo": 1514,
      "ĠMonitor": 1515,
      "ĠHyd": 1516,
      "ĠCom": 1517,
      "olog": 1518,
      "Ġrather": 1519,
      "Ġlead": 1520,
      "Ġthought": 1521,
      "ĠRem": 1522,
      "ffeine": 1523,
      "Ġhand": 1524,
      "oost": 1525,
      "hyd": 1526,
      "Ġmeet": 1527,
      "Ġsupplements": 1528,
      "Ġwalks": 1529,
      "Ġadjust": 1530,
      "Ġmusic": 1531,
      "cessive": 1532,
      "Ġallerg": 1533,
      "Ġshort": 1534,
      "Ġnutritious": 1535,
      "Ġgratitude": 1536,
      "Ġbreath": 1537,
      "Ġstretch": 1538,
      "Ġaffir": 1539,
      "ĠOpt": 1540,
      "ogniti": 1541,
      "iber": 1542,
      "Ġcalorie": 1543,
      "Ġstrengthen": 1544,
      "ĠVitamin": 1545,
      "Ġoptim": 1546,
      "Ġsugary": 1547,
      "izing": 1548,
      "ization": 1549,
      "Ġcheck": 1550,
      "Ġcleaning": 1551,
      "Ġunhealthy": 1552,
      "Ġenjoyable": 1553,
      "Ġcontrib": 1554,
      "Ġpollution": 1555,
      "Ġeyes": 1556,
      "Ġinvolves": 1557,
      "Ġsteps": 1558,
      "Ġcaffeine": 1559,
      "Ġaccount": 1560,
      "Ġslowly": 1561,
      "Ġwhere": 1562,
      "Ġtoxins": 1563,
      "Ġrunning": 1564,
      "Ġdistractions": 1565,
      "Ġtriggers": 1566,
      "screen": 1567,
      "Ġbusy": 1568,
      "Ġdrinks": 1569,
      "Ġconcentration": 1570,
      "Ġcomputer": 1571,
      "Ġchemicals": 1572,
      "Ġexposure": 1573,
      "Ġunderstand": 1574,
      "Ġtrans": 1575,
      "Ġstill": 1576,
      "Ġmaterials": 1577,
      "Ġosteopor": 1578,
      "ology": 1579,
      "Ġaffirm": 1580,
      "ognitive": 1581,
      "):": 1582,
      "10": 1583,
      "asi": 1584,
      "bio": 1585,
      "cing": 1586,
      "cle": 1587,
      "duction": 1588,
      "ffic": 1589,
      "ied": 1590,
      "ially": 1591,
      "ience": 1592,
      "lated": 1593,
      "med": 1594,
      "ne": 1595,
      "oin": 1596,
      "oth": 1597,
      "overy": 1598,
      "pes": 1599,
      "sity": 1600,
      "ual": 1601,
      "uri": 1602,
      "ures": 1603,
      "vail": 1604,
      "ynam": 1605,
      "Ġes": 1606,
      "Ġur": 1607,
      "Ġaim": 1608,
      "Ġage": 1609,
      "Ġable": 1610,
      "Ġaside": 1611,
      "Ġavail": 1612,
      "ink": 1613,
      "infor": 1614,
      "inten": 1615,
      "requ": 1616,
      "related": 1617,
      "Ġtre": 1618,
      "Ġtem": 1619,
      "Ġsa": 1620,
      "Ġsl": 1621,
      "Ġsen": 1622,
      "Ġsuc": 1623,
      "Ġsod": 1624,
      "Ġsession": 1625,
      "Ġsign": 1626,
      "ory": 1627,
      "Ġfive": 1628,
      "Ġfiber": 1629,
      "Ġfrequ": 1630,
      "Ġcra": 1631,
      "Ġcore": 1632,
      "Ġcoun": 1633,
      "Ġcognitive": 1634,
      "Ġwor": 1635,
      "Ġpor": 1636,
      "Ġpart": 1637,
      "ange": 1638,
      "Ġbec": 1639,
      "Ġbones": 1640,
      "Ġburn": 1641,
      "Ġbook": 1642,
      "Ġboost": 1643,
      "utri": 1644,
      "lev": 1645,
      "lect": 1646,
      "Ġdark": 1647,
      "Ġdown": 1648,
      "Ġrestr": 1649,
      "Ġreach": 1650,
      "Ġreinfor": 1651,
      "Ġown": 1652,
      "aring": 1653,
      "arting": 1654,
      "Ġinter": 1655,
      "iminate": 1656,
      "Ġoften": 1657,
      "Ġform": 1658,
      "Ġgrow": 1659,
      "Ġsta": 1660,
      "Ġstart": 1661,
      "Ġstand": 1662,
      "Ġstarting": 1663,
      "ram": 1664,
      "Ġloo": 1665,
      "Ġhy": 1666,
      "ulation": 1667,
      "Ġhealthier": 1668,
      "ower": 1669,
      "Ġnum": 1670,
      "use": 1671,
      "ush": 1672,
      "sitiv": 1673,
      "ability": 1674,
      "Ġfoster": 1675,
      "ĠSh": 1676,
      "ĠSleep": 1677,
      "ĠTra": 1678,
      "ĠTaking": 1679,
      "ĠTalk": 1680,
      "ĠTime": 1681,
      "Ġexcessive": 1682,
      "Ġwithout": 1683,
      "ĠMana": 1684,
      "unct": 1685,
      "ĠPilates": 1686,
      "ecovery": 1687,
      "Ġanti": 1688,
      "Ġrich": 1689,
      "terol": 1690,
      "Ġpot": 1691,
      "Ġlea": 1692,
      "ĠRecovery": 1693,
      "ĠDiet": 1694,
      "Ġchild": 1695,
      "Ġcholes": 1696,
      "loy": 1697,
      "load": 1698,
      "ĠBalan": 1699,
      "ĠBoundaries": 1700,
      "Ġwee": 1701,
      "Ġdietary": 1702,
      "Ġplatea": 1703,
      "ĠStreng": 1704,
      "Ġcomfort": 1705,
      "tives": 1706,
      "pecially": 1707,
      "Ġwellbeing": 1708,
      "Ġeffectively": 1709,
      "upunct": 1710,
      "Ġtravel": 1711,
      "aste": 1712,
      "Ġstaying": 1713,
      "ĠInstead": 1714,
      "ĠUtil": 1715,
      "Ġpreventing": 1716,
      "ĠList": 1717,
      "osis": 1718,
      "Ġprogres": 1719,
      "dually": 1720,
      "ĠYoga": 1721,
      "Ġothers": 1722,
      "ishment": 1723,
      "sistency": 1724,
      "Ġexercising": 1725,
      "Ġtechnology": 1726,
      "Ġfeeling": 1727,
      "Ġperi": 1728,
      "Ġperform": 1729,
      "Ġsocializing": 1730,
      "Ġachieve": 1731,
      "Ġspend": 1732,
      "Ġspace": 1733,
      "Ġevening": 1734,
      "Ġsmoke": 1735,
      "ĠAdjust": 1736,
      "Ġscreens": 1737,
      "Ġcontrol": 1738,
      "Ġdisease": 1739,
      "Ġclose": 1740,
      "Ġeye": 1741,
      "Ġcomplex": 1742,
      "Ġcomplete": 1743,
      "obic": 1744,
      "Ġlower": 1745,
      "Ġlunch": 1746,
      "Ġsunscreen": 1747,
      "Ġfunctioning": 1748,
      "avor": 1749,
      "Ġoutdoors": 1750,
      "Ġadvice": 1751,
      "ĠConsum": 1752,
      "Ġmoderate": 1753,
      "workout": 1754,
      "rapy": 1755,
      "Ġextra": 1756,
      "Ġengage": 1757,
      "ĠBreak": 1758,
      "Ġdevices": 1759,
      "Ġlimits": 1760,
      "Ġdigestive": 1761,
      "Ġaerobic": 1762,
      "Ġsports": 1763,
      "Ġindivid": 1764,
      "ĠAny": 1765,
      "ĠAsk": 1766,
      "Ġthoughts": 1767,
      "Ġallergens": 1768,
      "Ġcontribute": 1769,
      "Ġosteoporosis": 1770,
      "Ġaffirmations": 1771,
      "biotic": 1772,
      "ynamic": 1773,
      "Ġespecially": 1774,
      "Ġavailable": 1775,
      "intensity": 1776,
      "Ġsensitiv": 1777,
      "Ġsuccess": 1778,
      "Ġfrequent": 1779,
      "Ġcraving": 1780,
      "Ġburnout": 1781,
      "Ġrestric": 1782,
      "Ġgrowth": 1783,
      "Ġchildren": 1784,
      "Ġcholesterol": 1785,
      "Ġcomfortable": 1786,
      "upuncture": 1787,
      "ĠUtilize": 1788,
      "ĠListen": 1789,
      "Ġperformance": 1790,
      "20": 1791,
      "ag": 1792,
      "ai": 1793,
      "bs": 1794,
      "bac": 1795,
      "bers": 1796,
      "based": 1797,
      "ding": 1798,
      "ees": 1799,
      "fs": 1800,
      "fied": 1801,
      "gin": 1802,
      "ggies": 1803,
      "ia": 1804,
      "ire": 1805,
      "ian": 1806,
      "ient": 1807,
      "ium": 1808,
      "mp": 1809,
      "night": 1810,
      "ose": 1811,
      "opt": 1812,
      "ohyd": 1813,
      "pp": 1814,
      "pon": 1815,
      "ption": 1816,
      "pair": 1817,
      "rit": 1818,
      "rant": 1819,
      "rich": 1820,
      "rgan": 1821,
      "rates": 1822,
      "set": 1823,
      "the": 1824,
      "ted": 1825,
      "ue": 1826,
      "ually": 1827,
      "vest": 1828,
      "whe": 1829,
      "Ġ7": 1830,
      "Ġ8": 1831,
      "reating": 1832,
      "Ġtough": 1833,
      "Ġtreat": 1834,
      "Ġsol": 1835,
      "Ġsatur": 1836,
      "Ġsens": 1837,
      "tici": 1838,
      "hed": 1839,
      "Ġfil": 1840,
      "Ġfir": 1841,
      "Ġfast": 1842,
      "Ġflow": 1843,
      "ature": 1844,
      "Ġcare": 1845,
      "Ġcelebrate": 1846,
      "erals": 1847,
      "ergies": 1848,
      "Ġwon": 1849,
      "Ġwind": 1850,
      "Ġmet": 1851,
      "Ġmonitor": 1852,
      "Ġmakes": 1853,
      "ention": 1854,
      "Ġpa": 1855,
      "Ġprior": 1856,
      "itate": 1857,
      "Ġbat": 1858,
      "Ġbow": 1859,
      "Ġbud": 1860,
      "Ġback": 1861,
      "Ġbrain": 1862,
      "utter": 1863,
      "tionally": 1864,
      "stablish": 1865,
      "Ġdec": 1866,
      "Ġdam": 1867,
      "Ġremo": 1868,
      "Ġrepair": 1869,
      "Ġome": 1870,
      "arn": 1871,
      "arge": 1872,
      "Ġevent": 1873,
      "Ġheal": 1874,
      "etes": 1875,
      "imize": 1876,
      "Ġthen": 1877,
      "Ġthey": 1878,
      "Ġgut": 1879,
      "icate": 1880,
      "Ġlimit": 1881,
      "Ġharm": 1882,
      "Ġcancer": 1883,
      "ulate": 1884,
      "ows": 1885,
      "Ġnurt": 1886,
      "abetes": 1887,
      "Ġonline": 1888,
      "ĠEstablish": 1889,
      "Ġask": 1890,
      "lying": 1891,
      "Ġsur": 1892,
      "ĠWhe": 1893,
      "Ġdiabetes": 1894,
      "ĠMany": 1895,
      "Ġimage": 1896,
      "ĠHa": 1897,
      "Ġencourage": 1898,
      "ressure": 1899,
      "ĠPo": 1900,
      "urance": 1901,
      "ters": 1902,
      "Ġpoin": 1903,
      "Ġleg": 1904,
      "Ġlearn": 1905,
      "acing": 1906,
      "Ġitem": 1907,
      "portation": 1908,
      "Ġchoose": 1909,
      "Ġchair": 1910,
      "plement": 1911,
      "Ġintention": 1912,
      "Ġbodywe": 1913,
      "Ġvis": 1914,
      "Ġvib": 1915,
      "ĠGra": 1916,
      "Ġmindset": 1917,
      "Ġminerals": 1918,
      "Ġoutside": 1919,
      "ĠFor": 1920,
      "ants": 1921,
      "Ġplay": 1922,
      "Ġcommun": 1923,
      "Ġmeas": 1924,
      "Ġdoes": 1925,
      "Ġdoct": 1926,
      "Ġsore": 1927,
      "Ġwellness": 1928,
      "Ġoverwhe": 1929,
      "ember": 1930,
      "Ġveggies": 1931,
      "Ġallergies": 1932,
      "Ġfruit": 1933,
      "Ġjour": 1934,
      "Ġjob": 1935,
      "bearing": 1936,
      "vide": 1937,
      "Ġnutrient": 1938,
      "orporating": 1939,
      "ĠConsistency": 1940,
      "tension": 1941,
      "Ġincluding": 1942,
      "pertension": 1943,
      "Ġsetting": 1944,
      "Ġsetbac": 1945,
      "Ġpromoting": 1946,
      "ĠFoods": 1947,
      "ĠOrgan": 1948,
      "Ġacids": 1949,
      "ĠEnough": 1950,
      "ĠEnsure": 1951,
      "ĠEncourage": 1952,
      "ĠAdd": 1953,
      "ĠVary": 1954,
      "Ġweekly": 1955,
      "ĠIncrease": 1956,
      "Ġrespon": 1957,
      "Ġhydration": 1958,
      "Ġvari": 1959,
      "Ġcarbohyd": 1960,
      "Ġaware": 1961,
      "Ġsee": 1962,
      "Ġsmaller": 1963,
      "airs": 1964,
      "Ġappro": 1965,
      "Ġbuilding": 1966,
      "Ġrelationship": 1967,
      "Ġpollen": 1968,
      "Ġcondition": 1969,
      "Ġpracticing": 1970,
      "rolling": 1971,
      "Ġinvolve": 1972,
      "Ġvitamin": 1973,
      "Ġreminders": 1974,
      "Ġallows": 1975,
      "Ġwhether": 1976,
      "Ġalternative": 1977,
      "Ġoutdoor": 1978,
      "ĠConsult": 1979,
      "Ġmoderation": 1980,
      "Ġtype": 1981,
      "Ġendurance": 1982,
      "Ġhunger": 1983,
      "Ġorganic": 1984,
      "ĠMeditation": 1985,
      "Ġemploy": 1986,
      "ĠNutri": 1987,
      "ĠQuality": 1988,
      "Ġsitting": 1989,
      "Ġmoments": 1990,
      "Ġbenef": 1991,
      "Ġglass": 1992,
      "Ġ150": 1993,
      "Ġmedication": 1994,
      "gov": 1995,
      "Ġidentify": 1996,
      "Ġagain": 1997,
      "Ġcultivate": 1998,
      "Ġpresent": 1999,
      "Ġbiking": 2000,
      "Ġbrisk": 2001,
      "Ġeliminate": 2002,
      "Ġproblems": 2003,
      "Ġprotect": 2004,
      "ĠHydration": 2005,
      "ĠRemember": 2006,
      "Ġaccountability": 2007,
      "Ġtransportation": 2008,
      "Ġportion": 2009,
      "Ġreinforces": 2010,
      "Ġlooking": 2011,
      "Ġhypertension": 2012,
      "ĠTrack": 2013,
      "ĠManage": 2014,
      "Ġpotential": 2015,
      "Ġprogressive": 2016,
      "Ġcravings": 2017,
      "Ġsaturated": 2018,
      "Ġfirst": 2019,
      "Ġomega": 2020,
      "Ġevents": 2021,
      "Ġharmful": 2022,
      "Ġnurture": 2023,
      "Ġitems": 2024,
      "Ġbodyweight": 2025,
      "Ġvibrant": 2026,
      "Ġdoctor": 2027,
      "Ġoverwhel": 2028,
      "Ġsetbacks": 2029,
      "Ġcarbohydrates": 2030,
      "Ġemployees": 2031,
      "'ve": 2032,
      "ap": 2033,
      "asion": 2034,
      "atives": 2035,
      "ban": 2036,
      "bil": 2037,
      "balan": 2038,
      "cupuncture": 2039,
      "day": 2040,
      "eti": 2041,
      "ever": 2042,
      "eek": 2043,
      "ff": 2044,
      "fl": 2045,
      "free": 2046,
      "gar": 2047,
      "hins": 2048,
      "hance": 2049,
      "ion": 2050,
      "kes": 2051,
      "lin": 2052,
      "llow": 2053,
      "lace": 2054,
      "min": 2055,
      "mit": 2056,
      "nthe": 2057,
      "other": 2058,
      "oining": 2059,
      "pace": 2060,
      "phins": 2061,
      "ruc": 2062,
      "ric": 2063,
      "sor": 2064,
      "sations": 2065,
      "space": 2066,
      "tent": 2067,
      "talk": 2068,
      "trol": 2069,
      "uel": 2070,
      "uals": 2071,
      "val": 2072,
      "water": 2073,
      "xt": 2074,
      "yc": 2075,
      "zing": 2076,
      "Ġ5": 2077,
      "Ġz": 2078,
      "Ġing": 2079,
      "ĠâĢ": 2080,
      "Ġrolling": 2081,
      "Ġact": 2082,
      "Ġaids": 2083,
      "inter": 2084,
      "inue": 2085,
      "reduc": 2086,
      "redi": 2087,
      "rect": 2088,
      "reme": 2089,
      "reative": 2090,
      "Ġtalk": 2091,
      "Ġturn": 2092,
      "Ġtaste": 2093,
      "Ġsal": 2094,
      "Ġsed": 2095,
      "Ġsam": 2096,
      "tian": 2097,
      "ouse": 2098,
      "nds": 2099,
      "orm": 2100,
      "ording": 2101,
      "orphins": 2102,
      "ale": 2103,
      "Ġfish": 2104,
      "Ġfree": 2105,
      "ator": 2106,
      "atch": 2107,
      "Ġcir": 2108,
      "Ġcop": 2109,
      "Ġcyc": 2110,
      "Ġcreative": 2111,
      "eric": 2112,
      "Ġwrit": 2113,
      "Ġmon": 2114,
      "Ġmis": 2115,
      "Ġmil": 2116,
      "Ġmas": 2117,
      "Ġmaking": 2118,
      "Ġyog": 2119,
      "ener": 2120,
      "Ġpe": 2121,
      "Ġpark": 2122,
      "Ġpush": 2123,
      "Ġpressure": 2124,
      "ite": 2125,
      "itting": 2126,
      "ittent": 2127,
      "Ġband": 2128,
      "Ġbased": 2129,
      "Ġtoget": 2130,
      "led": 2131,
      "leag": 2132,
      "stain": 2133,
      "Ġdynamic": 2134,
      "Ġrech": 2135,
      "Ġrequ": 2136,
      "Ġresist": 2137,
      "Ġreward": 2138,
      "Ġok": 2139,
      "Ġove": 2140,
      "Ġoil": 2141,
      "Ġocc": 2142,
      "arming": 2143,
      "artici": 2144,
      "Ġef": 2145,
      "Ġeasi": 2146,
      "room": 2147,
      "Ġhead": 2148,
      "Ġins": 2149,
      "etwork": 2150,
      "eds": 2151,
      "edies": 2152,
      "Ġforms": 2153,
      "Ġgy": 2154,
      "Ġgent": 2155,
      "Ġgrate": 2156,
      "Ġgather": 2157,
      "entary": 2158,
      "Ġstairs": 2159,
      "rable": 2160,
      "Ġlast": 2161,
      "Ġlot": 2162,
      "Ġlook": 2163,
      "Ġhas": 2164,
      "Ġhol": 2165,
      "Ġhard": 2166,
      "Ġhot": 2167,
      "Ġnetwork": 2168,
      "Ġproduction": 2169,
      "Ġprobiotic": 2170,
      "uses": 2171,
      "sibil": 2172,
      "ilt": 2173,
      "ilar": 2174,
      "ĠIm": 2175,
      "ĠIs": 2176,
      "Ġfoam": 2177,
      "ĠSim": 2178,
      "ĠSmo": 2179,
      "ĠSup": 2180,
      "ĠSeek": 2181,
      "ĠToo": 2182,
      "ĠTai": 2183,
      "Ġones": 2184,
      "Ġexper": 2185,
      "Ġexpect": 2186,
      "Ġaren": 2187,
      "Ġareas": 2188,
      "ĠAcc": 2189,
      "ĠAcupuncture": 2190,
      "âĢĿ": 2191,
      "Ġsustain": 2192,
      "ĠWe": 2193,
      "Ġdieti": 2194,
      "Ġdirect": 2195,
      "Ġencoura": 2196,
      "Ġenhance": 2197,
      "versations": 2198,
      "ĠCelebrate": 2199,
      "Ġconven": 2200,
      "Ġconversations": 2201,
      "unks": 2202,
      "ĠPhysical": 2203,
      "ĠPartici": 2204,
      "Ġaler": 2205,
      "Ġalign": 2206,
      "Ġworkspace": 2207,
      "Ġanother": 2208,
      "Ġreduces": 2209,
      "Ġbeen": 2210,
      "Ġthose": 2211,
      "Ġmood": 2212,
      "amm": 2213,
      "ĠRel": 2214,
      "ĠRep": 2215,
      "ffee": 2216,
      "ĠDo": 2217,
      "ĠDist": 2218,
      "Ġincre": 2219,
      "Ġincorporating": 2220,
      "ify": 2221,
      "Ġintense": 2222,
      "ĠBreat": 2223,
      "ĠBuild": 2224,
      "adl": 2225,
      "Ġhaving": 2226,
      "Ġval": 2227,
      "Ġstressors": 2228,
      "Ġdiets": 2229,
      "ĠGive": 2230,
      "Ġdeadl": 2231,
      "rust": 2232,
      "rupt": 2233,
      "rugg": 2234,
      "Ġminimize": 2235,
      "ciation": 2236,
      "cious": 2237,
      "Ġimproves": 2238,
      "ĠFitness": 2239,
      "ĠStret": 2240,
      "Ġcomb": 2241,
      "Ġcomp": 2242,
      "Ġcommon": 2243,
      "Ġmem": 2244,
      "Ġmeal": 2245,
      "Ġmean": 2246,
      "Ġwilling": 2247,
      "ditionally": 2248,
      "Ġmedical": 2249,
      "Ġmedia": 2250,
      "umes": 2251,
      "Ġadults": 2252,
      "Ġprep": 2253,
      "rioritizing": 2254,
      "Ġposition": 2255,
      "Ġtrac": 2256,
      "Ġvegetation": 2257,
      "Ġweights": 2258,
      "ĠGetting": 2259,
      "Ġjog": 2260,
      "Ġjoin": 2261,
      "ored": 2262,
      "ĠUV": 2263,
      "ĠUn": 2264,
      "Ġshare": 2265,
      "ĠLet": 2266,
      "ĠLook": 2267,
      "lude": 2268,
      "Ġprogram": 2269,
      "ĠChi": 2270,
      "ĠChange": 2271,
      "ĠControl": 2272,
      "municate": 2273,
      "Ġclutter": 2274,
      "ĠOp": 2275,
      "isturi": 2276,
      "Ġabsor": 2277,
      "Ġprovider": 2278,
      "Ġsnack": 2279,
      "Ġsnacking": 2280,
      "Ġcalming": 2281,
      "ĠBefore": 2282,
      "Ġavoiding": 2283,
      "ĠEnga": 2284,
      "ĠAdditionally": 2285,
      "Ġrecover": 2286,
      "Ġdeeply": 2287,
      "ĠInclude": 2288,
      "Ġrespect": 2289,
      "Ġresults": 2290,
      "Ġlonger": 2291,
      "Ġseated": 2292,
      "Ġseven": 2293,
      "Ġseeds": 2294,
      "Ġremedies": 2295,
      "Ġcontinue": 2296,
      "ensity": 2297,
      "Ġhikes": 2298,
      "Ġmovements": 2299,
      "Ġtask": 2300,
      "Ġfinding": 2301,
      "Ġpollut": 2302,
      "Ġbedroom": 2303,
      "Ġoffer": 2304,
      "Ġoffice": 2305,
      "Ġsimilar": 2306,
      "Ġclos": 2307,
      "Ġrefres": 2308,
      "ĠPlant": 2309,
      "ĠPlace": 2310,
      "ĠProvide": 2311,
      "Ġdeveloping": 2312,
      "Ġdevelopment": 2313,
      "Ġrid": 2314,
      "Ġtwice": 2315,
      "Ġgreens": 2316,
      "ĠThese": 2317,
      "Ġaccording": 2318,
      "Ġcolor": 2319,
      "Ġcolleag": 2320,
      "Ġgroup": 2321,
      "Ġlunges": 2322,
      "Ġconsum": 2323,
      "Ġconscious": 2324,
      "Ġclearly": 2325,
      "ficial": 2326,
      "Ġtoxic": 2327,
      "Ġregim": 2328,
      "Ġproperly": 2329,
      "Ġalternatives": 2330,
      "Ġchallenge": 2331,
      "Ġchallenges": 2332,
      "Ġchallenging": 2333,
      "Ġadvance": 2334,
      "Ġtypes": 2335,
      "Ġcool": 2336,
      "Ġcoffee": 2337,
      "Ġendorphins": 2338,
      "Ġextreme": 2339,
      "Ġengaging": 2340,
      "termittent": 2341,
      "Ġdevice": 2342,
      "Ġemph": 2343,
      "Ġguided": 2344,
      "Ġmoment": 2345,
      "Ġbeneficial": 2346,
      "Ġdiscus": 2347,
      "ĠHealthy": 2348,
      "Ġclasses": 2349,
      "Ġlistening": 2350,
      "Ġreleases": 2351,
      "Ġloc": 2352,
      "Ġnourishment": 2353,
      "ĠCommunicate": 2354,
      "Ġoptimize": 2355,
      "Ġunderstanding": 2356,
      "fficient": 2357,
      "Ġurban": 2358,
      "Ġtrees": 2359,
      "Ġsodium": 2360,
      "Ġsessions": 2361,
      "Ġsignific": 2362,
      "Ġcounts": 2363,
      "Ġbecome": 2364,
      "Ġstatic": 2365,
      "ĠShow": 2366,
      "Ġweeke": 2367,
      "Ġplateau": 2368,
      "ĠStrength": 2369,
      "Ġtraveling": 2370,
      "Ġperiod": 2371,
      "Ġspending": 2372,
      "Ġindividual": 2373,
      "Ġsensitivity": 2374,
      "Ġsuccesses": 2375,
      "Ġsolar": 2376,
      "Ġfasting": 2377,
      "Ġwindows": 2378,
      "Ġpriority": 2379,
      "Ġbath": 2380,
      "Ġbowl": 2381,
      "Ġremove": 2382,
      "Ġsurround": 2383,
      "ĠWhether": 2384,
      "ĠHave": 2385,
      "Ġlegumes": 2386,
      "ĠGradually": 2387,
      "Ġplaying": 2388,
      "Ġsoreness": 2389,
      "Ġresponsibil": 2390,
      "Ġvarious": 2391,
      "Ġapproach": 2392,
      "ĠNutrition": 2393,
      "Ġoverwhelmed": 2394,
      "asional": 2395,
      "balanced": 2396,
      "flamm": 2397,
      "nthetic": 2398,
      "Ġingredi": 2399,
      "ĠâĢľ": 2400,
      "Ġactually": 2401,
      "reducing": 2402,
      "Ġsedentary": 2403,
      "Ġsame": 2404,
      "Ġcirc": 2405,
      "Ġmask": 2406,
      "Ġyogurt": 2407,
      "Ġtogether": 2408,
      "Ġrecharge": 2409,
      "Ġrequire": 2410,
      "Ġresistance": 2411,
      "Ġovereating": 2412,
      "Ġoccasional": 2413,
      "Ġgentle": 2414,
      "Ġgrateful": 2415,
      "Ġgatherings": 2416,
      "ĠSmoking": 2417,
      "Ġexperience": 2418,
      "ĠAccept": 2419,
      "Ġdietitian": 2420,
      "Ġencourages": 2421,
      "ĠParticip": 2422,
      "ĠDistra": 2423,
      "ruggling": 2424,
      "ĠStretching": 2425,
      "Ġabsorb": 2426,
      "Ġaccordingly": 2427,
      "Ġcolleagues": 2428,
      "Ġresponsibilities": 2429,
      "Ġingredients": 2430,
      "'re": 2431,
      ").": 2432,
      "Cs": 2433,
      "Care": 2434,
      "DL": 2435,
      "OCs": 2436,
      "aw": 2437,
      "aks": 2438,
      "ages": 2439,
      "apt": 2440,
      "ager": 2441,
      "bar": 2442,
      "bod": 2443,
      "body": 2444,
      "bad": 2445,
      "boo": 2446,
      "back": 2447,
      "cting": 2448,
      "cell": 2449,
      "cts": 2450,
      "cept": 2451,
      "dy": 2452,
      "down": 2453,
      "dense": 2454,
      "ere": 2455,
      "eas": 2456,
      "fol": 2457,
      "fter": 2458,
      "fill": 2459,
      "gi": 2460,
      "gl": 2461,
      "gn": 2462,
      "gs": 2463,
      "gress": 2464,
      "gry": 2465,
      "gran": 2466,
      "ho": 2467,
      "hand": 2468,
      "hav": 2469,
      "hods": 2470,
      "hale": 2471,
      "ix": 2472,
      "ife": 2473,
      "kra": 2474,
      "lit": 2475,
      "lus": 2476,
      "late": 2477,
      "life": 2478,
      "mus": 2479,
      "meric": 2480,
      "nal": 2481,
      "nce": 2482,
      "ox": 2483,
      "ofs": 2484,
      "pri": 2485,
      "pas": 2486,
      "rbs": 2487,
      "ser": 2488,
      "sour": 2489,
      "sues": 2490,
      "tes": 2491,
      "tra": 2492,
      "ture": 2493,
      "ub": 2494,
      "uer": 2495,
      "uations": 2496,
      "ugar": 2497,
      "urable": 2498,
      "verc": 2499,
      "vity": 2500,
      "ying": 2501,
      "zes": 2502,
      "zen": 2503,
      "zard": 2504,
      "Ġ2": 2505,
      "ĠJ": 2506,
      "Ġent": 2507,
      "Ġra": 2508,
      "Ġour": 2509,
      "Ġvery": 2510,
      "Ġ20": 2511,
      "Ġaid": 2512,
      "Ġarom": 2513,
      "iner": 2514,
      "ined": 2515,
      "ination": 2516,
      "inking": 2517,
      "inations": 2518,
      "inner": 2519,
      "read": 2520,
      "reek": 2521,
      "Ġtou": 2522,
      "Ġter": 2523,
      "Ġten": 2524,
      "Ġtun": 2525,
      "Ġtur": 2526,
      "Ġtakes": 2527,
      "Ġtrust": 2528,
      "Ġsay": 2529,
      "Ġsight": 2530,
      "Ġsound": 2531,
      "Ġsense": 2532,
      "tient": 2533,
      "tified": 2534,
      "outh": 2535,
      "ouching": 2536,
      "org": 2537,
      "ories": 2538,
      "orting": 2539,
      "here": 2540,
      "herapy": 2541,
      "alking": 2542,
      "ingful": 2543,
      "Ġfer": 2544,
      "Ġfro": 2545,
      "Ġfra": 2546,
      "Ġfab": 2547,
      "Ġfur": 2548,
      "Ġflo": 2549,
      "Ġfad": 2550,
      "Ġfound": 2551,
      "Ġfact": 2552,
      "Ġfurn": 2553,
      "Ġfuel": 2554,
      "este": 2555,
      "estic": 2556,
      "estions": 2557,
      "athy": 2558,
      "atching": 2559,
      "attern": 2560,
      "ately": 2561,
      "atters": 2562,
      "atherapy": 2563,
      "Ġcome": 2564,
      "Ġcell": 2565,
      "Ġcruc": 2566,
      "Ġcatch": 2567,
      "Ġcere": 2568,
      "erve": 2569,
      "erous": 2570,
      "Ġwis": 2571,
      "Ġwake": 2572,
      "Ġwall": 2573,
      "Ġwant": 2574,
      "Ġwaste": 2575,
      "Ġwatching": 2576,
      "Ġmass": 2577,
      "Ġmany": 2578,
      "Ġmouth": 2579,
      "Ġmatters": 2580,
      "Ġyear": 2581,
      "enic": 2582,
      "Ġpm": 2583,
      "Ġpan": 2584,
      "Ġpuri": 2585,
      "Ġpower": 2586,
      "Ġprioritizing": 2587,
      "Ġpestic": 2588,
      "Ġpattern": 2589,
      "iting": 2590,
      "iture": 2591,
      "itable": 2592,
      "Ġbl": 2593,
      "Ġbit": 2594,
      "Ġbel": 2595,
      "Ġbri": 2596,
      "Ġbam": 2597,
      "Ġbac": 2598,
      "Ġbad": 2599,
      "Ġbig": 2600,
      "Ġboth": 2601,
      "Ġbored": 2602,
      "Ġtoward": 2603,
      "lely": 2604,
      "lection": 2605,
      "Ġdet": 2606,
      "Ġdep": 2607,
      "Ġdest": 2608,
      "Ġdone": 2609,
      "Ġdrink": 2610,
      "Ġdinner": 2611,
      "Ġresi": 2612,
      "Ġreci": 2613,
      "Ġrecy": 2614,
      "Ġrepl": 2615,
      "uces": 2616,
      "Ġob": 2617,
      "Ġoverc": 2618,
      "arp": 2619,
      "arly": 2620,
      "arian": 2621,
      "Ġeight": 2622,
      "Ġelev": 2623,
      "Ġelect": 2624,
      "Ġearly": 2625,
      "ism": 2626,
      "isure": 2627,
      "ishing": 2628,
      "ission": 2629,
      "roly": 2630,
      "Ġhemp": 2631,
      "Ġherbs": 2632,
      "Ġind": 2633,
      "Ġinfe": 2634,
      "Ġintern": 2635,
      "Ġinform": 2636,
      "Ġintermittent": 2637,
      "Ġinflamm": 2638,
      "etog": 2639,
      "iment": 2640,
      "edback": 2641,
      "Ġtherap": 2642,
      "thing": 2643,
      "Ġforum": 2644,
      "Ġfortified": 2645,
      "Ġgre": 2646,
      "Ġgam": 2647,
      "icro": 2648,
      "Ġstra": 2649,
      "Ġstri": 2650,
      "Ġstud": 2651,
      "Ġstop": 2652,
      "Ġstruggling": 2653,
      "Ġline": 2654,
      "Ġhit": 2655,
      "Ġhar": 2656,
      "Ġhind": 2657,
      "Ġhum": 2658,
      "Ġhist": 2659,
      "Ġhob": 2660,
      "Ġhouse": 2661,
      "ayo": 2662,
      "ays": 2663,
      "ulations": 2664,
      "omen": 2665,
      "els": 2666,
      "eling": 2667,
      "elines": 2668,
      "Ġnorm": 2669,
      "ctivity": 2670,
      "sition": 2671,
      "sitive": 2672,
      "Ġfollow": 2673,
      "ĠSit": 2674,
      "ĠSelf": 2675,
      "ĠSur": 2676,
      "ĠTas": 2677,
      "Ġonce": 2678,
      "Ġonly": 2679,
      "Ġexcell": 2680,
      "ĠEvery": 2681,
      "ĠEmp": 2682,
      "Ġarea": 2683,
      "ash": 2684,
      "asing": 2685,
      "ĠAl": 2686,
      "ĠAt": 2687,
      "ĠActive": 2688,
      "ĠApp": 2689,
      "ĠAfter": 2690,
      "ĠActivity": 2691,
      "ceive": 2692,
      "Ġsufficient": 2693,
      "Ġsuitable": 2694,
      "ides": 2695,
      "ĠWarm": 2696,
      "Ġdiary": 2697,
      "Ġhelpful": 2698,
      "ĠMus": 2699,
      "ĠMaintain": 2700,
      "ĠMorning": 2701,
      "ĠMeas": 2702,
      "Ġimager": 2703,
      "ĠHome": 2704,
      "fection": 2705,
      "ĠCo": 2706,
      "ĠCle": 2707,
      "ĠCar": 2708,
      "ĠCust": 2709,
      "old": 2710,
      "Ġconf": 2711,
      "unities": 2712,
      "iry": 2713,
      "ĠPre": 2714,
      "ĠPut": 2715,
      "ĠPay": 2716,
      "ĠPack": 2717,
      "ĠPark": 2718,
      "gement": 2719,
      "Ġalong": 2720,
      "Ġalmon": 2721,
      "Ġworkload": 2722,
      "tein": 2723,
      "tend": 2724,
      "Ġrate": 2725,
      "terial": 2726,
      "Ġwhy": 2727,
      "Ġbeing": 2728,
      "Ġbegin": 2729,
      "Ġleisure": 2730,
      "Ġissues": 2731,
      "Ġthink": 2732,
      "Ġthinking": 2733,
      "Ġmoving": 2734,
      "aces": 2735,
      "actions": 2736,
      "aches": 2737,
      "accept": 2738,
      "ĠRest": 2739,
      "mote": 2740,
      "portunities": 2741,
      "ĠDuring": 2742,
      "ĠDeep": 2743,
      "ĠDynamic": 2744,
      "Ġchunks": 2745,
      "lore": 2746,
      "Ġreli": 2747,
      "Ġrelie": 2748,
      "Ġintensity": 2749,
      "process": 2750,
      "propri": 2751,
      "estones": 2752,
      "Ġhapp": 2753,
      "Ġhazard": 2754,
      "Ġnext": 2755,
      "ĠGreek": 2756,
      "Ġfeet": 2757,
      "Ġdem": 2758,
      "Ġdeal": 2759,
      "rubs": 2760,
      "rence": 2761,
      "Ġoutings": 2762,
      "antly": 2763,
      "Ġplant": 2764,
      "Ġcomes": 2765,
      "Ġcommit": 2766,
      "Ġdoors": 2767,
      "tivation": 2768,
      "ĠExper": 2769,
      "Ġsolely": 2770,
      "Ġeffect": 2771,
      "Ġeffects": 2772,
      "Ġroutines": 2773,
      "thers": 2774,
      "Ġoverload": 2775,
      "Ġovertra": 2776,
      "Ġrelaxing": 2777,
      "Ġrelaxed": 2778,
      "ventive": 2779,
      "Ġadopt": 2780,
      "Ġpreventive": 2781,
      "Ġpositives": 2782,
      "Ġtrainer": 2783,
      "Ġallergy": 2784,
      "iefs": 2785,
      "Ġvegetable": 2786,
      "Ġhabit": 2787,
      "ĠSetting": 2788,
      "Ġjud": 2789,
      "Ġjoining": 2790,
      "ĠInt": 2791,
      "ĠInvest": 2792,
      "Ġwhenever": 2793,
      "Ġshow": 2794,
      "Ġshop": 2795,
      "Ġsharp": 2796,
      "Ġshrubs": 2797,
      "Ġquiet": 2798,
      "Ġquestions": 2799,
      "Ġsynthetic": 2800,
      "Ġgradually": 2801,
      "ustle": 2802,
      "ĠYes": 2803,
      "Ġusage": 2804,
      "ĠConnec": 2805,
      "Ġsupports": 2806,
      "ifications": 2807,
      "Ġfeelings": 2808,
      "Ġmanagement": 2809,
      "Ġmanageable": 2810,
      "Ġkeeping": 2811,
      "force": 2812,
      "perature": 2813,
      "ĠOthers": 2814,
      "Ġaccess": 2815,
      "Ġacupuncture": 2816,
      "ounts": 2817,
      "Ġpersistent": 2818,
      "Ġperfection": 2819,
      "Ġdairy": 2820,
      "Ġeveryone": 2821,
      "Ġproviding": 2822,
      "Ġmotivation": 2823,
      "Ġachieving": 2824,
      "Ġskip": 2825,
      "Ġspin": 2826,
      "Ġsplit": 2827,
      "ĠBeing": 2828,
      "Ġsmooth": 2829,
      "arden": 2830,
      "ĠAdequate": 2831,
      "ĠAdopt": 2832,
      "ĠRegularly": 2833,
      "ĠKnow": 2834,
      "ĠVis": 2835,
      "ĠVOCs": 2836,
      "Ġkind": 2837,
      "Ġrecogn": 2838,
      "Ġopen": 2839,
      "Ġopportunities": 2840,
      "Ġscreening": 2841,
      "ized": 2842,
      "Ġreset": 2843,
      "Ġresorting": 2844,
      "Ġrestful": 2845,
      "Ġcleanser": 2846,
      "Ġunprocess": 2847,
      "Ġproduce": 2848,
      "Ġimmunity": 2849,
      "sociation": 2850,
      "Ġemotions": 2851,
      "Ġdifference": 2852,
      "Ġmodifications": 2853,
      "Ġemail": 2854,
      "compas": 2855,
      "ott": 2856,
      "Ġfulfill": 2857,
      "Ġperspe": 2858,
      "Ġrefined": 2859,
      "Ġinvolved": 2860,
      "Ġguard": 2861,
      "Ġguilt": 2862,
      "ĠPlan": 2863,
      "ĠPlatea": 2864,
      "ĠProbiotic": 2865,
      "ĠProgress": 2866,
      "ĠProtein": 2867,
      "ĠPromote": 2868,
      "Ġcause": 2869,
      "Ġcauses": 2870,
      "Ġphones": 2871,
      "Ġblock": 2872,
      "Ġlosing": 2873,
      "ĠThey": 2874,
      "Ġexplore": 2875,
      "ĠDehyd": 2876,
      "Ġtrying": 2877,
      "Ġcolors": 2878,
      "Ġlungs": 2879,
      "Ġneck": 2880,
      "Ġdistance": 2881,
      "Ġknown": 2882,
      "Ġsugars": 2883,
      "peh": 2884,
      "Ġregener": 2885,
      "Ġalternate": 2886,
      "Ġnegatively": 2887,
      "Ġappre": 2888,
      "Ġfullness": 2889,
      "Ġcoach": 2890,
      "Ġhunching": 2891,
      "Ġhungry": 2892,
      "Ġorganization": 2893,
      "Ġorganized": 2894,
      "ĠMeditate": 2895,
      "Ġconnect": 2896,
      "Ġconnection": 2897,
      "Ġconnections": 2898,
      "Ġconnected": 2899,
      "ĠBreaks": 2900,
      "Ġguide": 2901,
      "Ġguidelines": 2902,
      "Ġtrigger": 2903,
      "Ġinterests": 2904,
      "Ġrole": 2905,
      "Ġroom": 2906,
      "Ġroofs": 2907,
      "ĠQuit": 2908,
      "Ġdisrupt": 2909,
      "Ġglutes": 2910,
      "Ġlimber": 2911,
      "ĠHealth": 2912,
      "Ġconsidering": 2913,
      "ĠGood": 2914,
      "Ġmedications": 2915,
      "Ġadding": 2916,
      "Ġadded": 2917,
      "Ġrecommended": 2918,
      "good": 2919,
      "plify": 2920,
      "Ġagree": 2921,
      "Ġflavor": 2922,
      "Ġcultivating": 2923,
      "Ġbike": 2924,
      "Ġbring": 2925,
      "Ġrelease": 2926,
      "Ġnourish": 2927,
      "Ġproblem": 2928,
      "ĠMoisturi": 2929,
      "ĠMotivation": 2930,
      "ĠRemind": 2931,
      "Ġadjusting": 2932,
      "Ġbreaths": 2933,
      "Ġoptimal": 2934,
      "Ġaccountable": 2935,
      "asizes": 2936,
      "ney": 2937,
      "Ġtemperature": 2938,
      "Ġtempeh": 2939,
      "Ġsauer": 2940,
      "Ġsauces": 2941,
      "Ġslouching": 2942,
      "Ġsoda": 2943,
      "Ġworth": 2944,
      "Ġworld": 2945,
      "Ġpartner": 2946,
      "Ġinterval": 2947,
      "Ġinteractions": 2948,
      "Ġstages": 2949,
      "Ġstanding": 2950,
      "Ġnumber": 2951,
      "Ġnumerous": 2952,
      "Ġexcessively": 2953,
      "Ġantibod": 2954,
      "Ġleaves": 2955,
      "Ġleafy": 2956,
      "ĠBalanced": 2957,
      "ĠBalancing": 2958,
      "Ġweeks": 2959,
      "Ġplateaus": 2960,
      "Ġperiods": 2961,
      "ĠConsume": 2962,
      "ĠConsuming": 2963,
      "Ġindividuals": 2964,
      "Ġsensitivities": 2965,
      "Ġfrequently": 2966,
      "Ġrestriction": 2967,
      "Ġrestrictive": 2968,
      "vesting": 2969,
      "Ġtreats": 2970,
      "Ġtreatments": 2971,
      "Ġsensation": 2972,
      "Ġfilters": 2973,
      "Ġmethods": 2974,
      "Ġpatient": 2975,
      "Ġbuddy": 2976,
      "Ġdamage": 2977,
      "Ġhealing": 2978,
      "Ġencouragement": 2979,
      "ĠPositive": 2980,
      "Ġpoint": 2981,
      "Ġpoints": 2982,
      "Ġvision": 2983,
      "Ġcommunity": 2984,
      "Ġmeasures": 2985,
      "Ġdoesn": 2986,
      "Ġjournal": 2987,
      "Ġjourney": 2988,
      "ĠOrganize": 2989,
      "Ġbenefit": 2990,
      "Ġbenefits": 2991,
      "Ġglasses": 2992,
      "Ġagainst": 2993,
      "appropri": 2994,
      "ffer": 2995,
      "linic": 2996,
      "minute": 2997,
      "rics": 2998,
      "Ġzones": 2999,
      "Ġcoping": 3000,
      "Ġcycling": 3001,
      "Ġwriting": 3002,
      "Ġmonth": 3003,
      "Ġmiso": 3004,
      "Ġmilestones": 3005,
      "Ġbands": 3006,
      "Ġokay": 3007,
      "Ġoils": 3008,
      "Ġeffort": 3009,
      "Ġeasily": 3010,
      "Ġinsulation": 3011,
      "Ġgym": 3012,
      "Ġholistic": 3013,
      "ĠImplement": 3014,
      "ĠSimplify": 3015,
      "Ġexpectations": 3016,
      "Ġsustainable": 3017,
      "Ġdirectly": 3018,
      "Ġconventional": 3019,
      "Ġalert": 3020,
      "ĠRelax": 3021,
      "ĠReplace": 3022,
      "Ġincreasing": 3023,
      "ĠBreathing": 3024,
      "Ġvalues": 3025,
      "Ġdeadlines": 3026,
      "Ġmembers": 3027,
      "Ġmeaningful": 3028,
      "Ġtracking": 3029,
      "Ġjogging": 3030,
      "ĠUnhealthy": 3031,
      "ĠEngage": 3032,
      "Ġrefreshed": 3033,
      "Ġcolorful": 3034,
      "Ġconsumption": 3035,
      "Ġconsciously": 3036,
      "Ġregimen": 3037,
      "Ġemphasizes": 3038,
      "Ġdiscussion": 3039,
      "Ġlocal": 3040,
      "Ġsignificantly": 3041,
      "Ġweekends": 3042,
      "Ġcirculation": 3043,
      "ĠParticipate": 3044,
      "ĠDistract": 3045,
      "havi": 3046,
      "kraut": 3047,
      "Ġtouch": 3048,
      "Ġtension": 3049,
      "Ġtune": 3050,
      "Ġfrozen": 3051,
      "Ġfragran": 3052,
      "Ġfabrics": 3053,
      "Ġfurther": 3054,
      "Ġfurniture": 3055,
      "esteem": 3056,
      "Ġcrucial": 3057,
      "Ġpanels": 3058,
      "Ġpesticides": 3059,
      "Ġpatterns": 3060,
      "Ġbeliefs": 3061,
      "Ġbamboo": 3062,
      "Ġbacterial": 3063,
      "Ġtowards": 3064,
      "Ġresil": 3065,
      "Ġrecipes": 3066,
      "Ġrecycle": 3067,
      "Ġovercome": 3068,
      "Ġelevator": 3069,
      "Ġinfections": 3070,
      "Ġinternal": 3071,
      "Ġinformation": 3072,
      "Ġinflammation": 3073,
      "etogenic": 3074,
      "Ġtherapies": 3075,
      "Ġgames": 3076,
      "Ġstraight": 3077,
      "Ġstrike": 3078,
      "Ġstudying": 3079,
      "Ġhistory": 3080,
      "Ġhobb": 3081,
      "Ġnormal": 3082,
      "Ġfollowing": 3083,
      "ĠSurround": 3084,
      "ĠTasks": 3085,
      "Ġexcellent": 3086,
      "ĠApplying": 3087,
      "Ġimagery": 3088,
      "ĠCustom": 3089,
      "Ġalmond": 3090,
      "acceptance": 3091,
      "Ġhappen": 3092,
      "Ġhazardous": 3093,
      "Ġcommitment": 3094,
      "ĠExperiment": 3095,
      "Ġovertraining": 3096,
      "Ġsmoothie": 3097,
      "Ġrecognize": 3098,
      "Ġunprocessed": 3099,
      "compassion": 3100,
      "ĠPlateaus": 3101,
      "ĠDehydration": 3102,
      "Ġsauerkraut": 3103,
      "Ġantibodies": 3104,
      "appropriate": 3105
    },
    "merges": [
      [
        "Ġ",
        "a"
      ],
      [
        "i",
        "n"
      ],
      [
        "r",
        "e"
      ],
      [
        "Ġ",
        "t"
      ],
      [
        "Ġ",
        "s"
      ],
      [
        "t",
        "i"
      ],
      [
        "o",
        "u"
      ],
      [
        "o",
        "n"
      ],
      [
        "n",
        "d"
      ],
      [
        "o",
        "r"
      ],
      [
        "h",
        "e"
      ],
      [
        "Ġa",
        "nd"
      ],
      [
        "a",
        "l"
      ],
      [
        "in",
        "g"
      ],
      [
        "Ġ",
        "f"
      ],
      [
        "e",
        "s"
      ],
      [
        "a",
        "t"
      ],
      [
        "Ġ",
        "c"
      ],
      [
        "e",
        "r"
      ],
      [
        "Ġ",
        "w"
      ],
      [
        "Ġ",
        "m"
      ],
      [
        "Ġ",
        "y"
      ],
      [
        "e",
        "n"
      ],
      [
        "Ġ",
        "p"
      ],
      [
        "Ġy",
        "ou"
      ],
      [
        "a",
        "n"
      ],
      [
        "i",
        "t"
      ],
      [
        "Ġ",
        "b"
      ],
      [
        "u",
        "t"
      ],
      [
        "Ġt",
        "o"
      ],
      [
        "ti",
        "on"
      ],
      [
        "l",
        "e"
      ],
      [
        "s",
        "t"
      ],
      [
        "Ġ",
        "d"
      ],
      [
        "Ġ",
        "re"
      ],
      [
        "u",
        "c"
      ],
      [
        "Ġyou",
        "r"
      ],
      [
        "Ġ",
        "o"
      ],
      [
        "a",
        "r"
      ],
      [
        "v",
        "e"
      ],
      [
        "Ġ",
        "e"
      ],
      [
        "i",
        "s"
      ],
      [
        "r",
        "o"
      ],
      [
        "Ġ",
        "he"
      ],
      [
        "Ġ",
        "in"
      ],
      [
        "e",
        "t"
      ],
      [
        "i",
        "m"
      ],
      [
        "e",
        "d"
      ],
      [
        "Ġt",
        "he"
      ],
      [
        "k",
        "e"
      ],
      [
        "Ġo",
        "f"
      ],
      [
        "t",
        "h"
      ],
      [
        "Ġf",
        "or"
      ],
      [
        "Ġ",
        "g"
      ],
      [
        "i",
        "c"
      ],
      [
        "en",
        "t"
      ],
      [
        "Ġs",
        "t"
      ],
      [
        "r",
        "a"
      ],
      [
        "Ġ",
        "l"
      ],
      [
        "Ġ",
        "h"
      ],
      [
        "al",
        "th"
      ],
      [
        "Ġc",
        "an"
      ],
      [
        "Ġ",
        "or"
      ],
      [
        "I",
        "n"
      ],
      [
        "a",
        "y"
      ],
      [
        "u",
        "l"
      ],
      [
        "o",
        "m"
      ],
      [
        "Ġhe",
        "alth"
      ],
      [
        "h",
        "at"
      ],
      [
        "o",
        "d"
      ],
      [
        "e",
        "l"
      ],
      [
        "o",
        "w"
      ],
      [
        "p",
        "ut"
      ],
      [
        "st",
        "r"
      ],
      [
        "Ġ",
        "n"
      ],
      [
        "ou",
        "t"
      ],
      [
        "uc",
        "tion"
      ],
      [
        "c",
        "ti"
      ],
      [
        "Ġp",
        "ro"
      ],
      [
        "O",
        "ut"
      ],
      [
        "In",
        "str"
      ],
      [
        "Out",
        "put"
      ],
      [
        "Instr",
        "uction"
      ],
      [
        "u",
        "s"
      ],
      [
        "s",
        "i"
      ],
      [
        "at",
        "e"
      ],
      [
        "a",
        "ke"
      ],
      [
        "g",
        "h"
      ],
      [
        "i",
        "l"
      ],
      [
        "a",
        "in"
      ],
      [
        "Ġ",
        "I"
      ],
      [
        "a",
        "tion"
      ],
      [
        "a",
        "b"
      ],
      [
        "e",
        "p"
      ],
      [
        "Ġf",
        "o"
      ],
      [
        "Ġ",
        "S"
      ],
      [
        "r",
        "i"
      ],
      [
        "Ġ",
        "T"
      ],
      [
        "Ġ",
        "on"
      ],
      [
        "c",
        "h"
      ],
      [
        "Ġe",
        "x"
      ],
      [
        "Ġ",
        "1"
      ],
      [
        "Ġ",
        "E"
      ],
      [
        "es",
        "s"
      ],
      [
        "Ġa",
        "re"
      ],
      [
        "a",
        "s"
      ],
      [
        "Ġ",
        "A"
      ],
      [
        "c",
        "e"
      ],
      [
        "re",
        "s"
      ],
      [
        "Ġa",
        "s"
      ],
      [
        "Ġhealth",
        "y"
      ],
      [
        "er",
        "c"
      ],
      [
        "l",
        "y"
      ],
      [
        "â",
        "Ģ"
      ],
      [
        "Ġl",
        "i"
      ],
      [
        "erc",
        "is"
      ],
      [
        "Ġs",
        "u"
      ],
      [
        "Ġw",
        "it"
      ],
      [
        "Ġwit",
        "h"
      ],
      [
        "i",
        "d"
      ],
      [
        "p",
        "or"
      ],
      [
        "Ġ",
        "W"
      ],
      [
        "l",
        "p"
      ],
      [
        "in",
        "d"
      ],
      [
        "Ġd",
        "i"
      ],
      [
        "Ġhe",
        "lp"
      ],
      [
        "Ġ",
        "M"
      ],
      [
        "Ġt",
        "hat"
      ],
      [
        "Ġ",
        "im"
      ],
      [
        "Ġ",
        "H"
      ],
      [
        "f",
        "e"
      ],
      [
        "Ġ",
        "en"
      ],
      [
        "v",
        "er"
      ],
      [
        "Ġ",
        "C"
      ],
      [
        "or",
        "k"
      ],
      [
        "o",
        "l"
      ],
      [
        "d",
        "uc"
      ],
      [
        "Ġc",
        "on"
      ],
      [
        "it",
        "y"
      ],
      [
        "om",
        "e"
      ],
      [
        "Ġt",
        "im"
      ],
      [
        "u",
        "n"
      ],
      [
        "el",
        "f"
      ],
      [
        "gh",
        "t"
      ],
      [
        "ercis",
        "e"
      ],
      [
        "i",
        "r"
      ],
      [
        "res",
        "s"
      ],
      [
        "i",
        "ti"
      ],
      [
        "Ġ",
        "P"
      ],
      [
        "e",
        "c"
      ],
      [
        "ul",
        "ar"
      ],
      [
        "g",
        "e"
      ],
      [
        "k",
        "s"
      ],
      [
        "al",
        "s"
      ],
      [
        "Ġa",
        "l"
      ],
      [
        "Ġw",
        "ork"
      ],
      [
        "Ġa",
        "n"
      ],
      [
        "Ġtim",
        "e"
      ],
      [
        "t",
        "e"
      ],
      [
        "u",
        "r"
      ],
      [
        "Ġ",
        "r"
      ],
      [
        "g",
        "ular"
      ],
      [
        "q",
        "u"
      ],
      [
        "s",
        "e"
      ],
      [
        "t",
        "er"
      ],
      [
        "Ġa",
        "cti"
      ],
      [
        "Ġw",
        "h"
      ],
      [
        "Ġp",
        "o"
      ],
      [
        "Ġd",
        "ay"
      ],
      [
        "uc",
        "h"
      ],
      [
        "ĠH",
        "ow"
      ],
      [
        "k",
        "ing"
      ],
      [
        "Ġs",
        "ome"
      ],
      [
        "Ġre",
        "duc"
      ],
      [
        "Ġb",
        "e"
      ],
      [
        "c",
        "us"
      ],
      [
        "t",
        "ain"
      ],
      [
        "Ġ",
        "le"
      ],
      [
        "Ġ",
        "is"
      ],
      [
        "Ġt",
        "h"
      ],
      [
        "Ġm",
        "o"
      ],
      [
        "a",
        "m"
      ],
      [
        "m",
        "ent"
      ],
      [
        "Ġg",
        "o"
      ],
      [
        "Ġfo",
        "od"
      ],
      [
        "ĠW",
        "hat"
      ],
      [
        "it",
        "s"
      ],
      [
        "ti",
        "ve"
      ],
      [
        "a",
        "c"
      ],
      [
        "Ġb",
        "re"
      ],
      [
        "i",
        "ght"
      ],
      [
        "Ġ",
        "R"
      ],
      [
        "Ġs",
        "uch"
      ],
      [
        "f",
        "fe"
      ],
      [
        "i",
        "es"
      ],
      [
        "m",
        "o"
      ],
      [
        "n",
        "ess"
      ],
      [
        "Ġ",
        "it"
      ],
      [
        "âĢ",
        "Ļ"
      ],
      [
        "por",
        "t"
      ],
      [
        "Ġ",
        "D"
      ],
      [
        "in",
        "e"
      ],
      [
        "Ġin",
        "c"
      ],
      [
        "f",
        "ul"
      ],
      [
        "Ġc",
        "h"
      ],
      [
        "l",
        "o"
      ],
      [
        "Ġacti",
        "v"
      ],
      [
        "u",
        "re"
      ],
      [
        "p",
        "le"
      ],
      [
        "r",
        "ou"
      ],
      [
        "z",
        "e"
      ],
      [
        "at",
        "ing"
      ],
      [
        "Ġm",
        "y"
      ],
      [
        "Ġre",
        "l"
      ],
      [
        "Ġre",
        "gular"
      ],
      [
        "i",
        "f"
      ],
      [
        "Ġin",
        "t"
      ],
      [
        "od",
        "y"
      ],
      [
        "p",
        "ro"
      ],
      [
        "s",
        "elf"
      ],
      [
        "ain",
        "tain"
      ],
      [
        "Ġ",
        "B"
      ],
      [
        "ou",
        "r"
      ],
      [
        "Ġw",
        "e"
      ],
      [
        "le",
        "ep"
      ],
      [
        "Ġyour",
        "self"
      ],
      [
        "ra",
        "cti"
      ],
      [
        "in",
        "s"
      ],
      [
        "he",
        "r"
      ],
      [
        "Ġm",
        "aintain"
      ],
      [
        "Ġb",
        "ody"
      ],
      [
        "Ġreduc",
        "e"
      ],
      [
        "a",
        "d"
      ],
      [
        "al",
        "an"
      ],
      [
        "es",
        "t"
      ],
      [
        "Ġh",
        "a"
      ],
      [
        "Ġex",
        "ercise"
      ],
      [
        "g",
        "a"
      ],
      [
        "Ġ",
        "v"
      ],
      [
        "al",
        "l"
      ],
      [
        "Ġst",
        "ress"
      ],
      [
        "Ġdi",
        "et"
      ],
      [
        "Ġn",
        "e"
      ],
      [
        "Ġfo",
        "cus"
      ],
      [
        "Ġs",
        "leep"
      ],
      [
        "Ġ",
        "G"
      ],
      [
        "Ġf",
        "e"
      ],
      [
        "Ġd",
        "e"
      ],
      [
        "ab",
        "le"
      ],
      [
        "Ġli",
        "ke"
      ],
      [
        "ĠM",
        "ake"
      ],
      [
        "o",
        "o"
      ],
      [
        "p",
        "s"
      ],
      [
        "t",
        "ing"
      ],
      [
        "il",
        "l"
      ],
      [
        "r",
        "u"
      ],
      [
        "he",
        "n"
      ],
      [
        "Ġm",
        "ind"
      ],
      [
        "an",
        "a"
      ],
      [
        "Ġfood",
        "s"
      ],
      [
        "re",
        "n"
      ],
      [
        "at",
        "ed"
      ],
      [
        "Ġm",
        "in"
      ],
      [
        "ro",
        "m"
      ],
      [
        "c",
        "i"
      ],
      [
        "u",
        "d"
      ],
      [
        "Ġ",
        "Ċ"
      ],
      [
        "Ġ",
        "out"
      ],
      [
        "Ġa",
        "t"
      ],
      [
        "Ġb",
        "alan"
      ],
      [
        "el",
        "l"
      ],
      [
        "Ġim",
        "pro"
      ],
      [
        "Ġ",
        "F"
      ],
      [
        "an",
        "t"
      ],
      [
        "ĠT",
        "ake"
      ],
      [
        "h",
        "y"
      ],
      [
        "o",
        "id"
      ],
      [
        "v",
        "oid"
      ],
      [
        "Ġf",
        "rom"
      ],
      [
        "Ġp",
        "l"
      ],
      [
        "ar",
        "t"
      ],
      [
        "ab",
        "l"
      ],
      [
        "ĠS",
        "t"
      ],
      [
        "iti",
        "es"
      ],
      [
        "a",
        "x"
      ],
      [
        "Ġc",
        "om"
      ],
      [
        "Ġw",
        "ay"
      ],
      [
        "Ġm",
        "e"
      ],
      [
        "Ġd",
        "o"
      ],
      [
        "Ġsu",
        "p"
      ],
      [
        "a",
        "re"
      ],
      [
        "ti",
        "v"
      ],
      [
        "Ġw",
        "al"
      ],
      [
        "ut",
        "es"
      ],
      [
        "cti",
        "ve"
      ],
      [
        "ĠE",
        "x"
      ],
      [
        "ver",
        "y"
      ],
      [
        "Ġgo",
        "als"
      ],
      [
        "g",
        "et"
      ],
      [
        "Ġs",
        "o"
      ],
      [
        "Ġw",
        "ill"
      ],
      [
        "Ġm",
        "ana"
      ],
      [
        "Ġe",
        "ffe"
      ],
      [
        "ri",
        "or"
      ],
      [
        "Ġr",
        "out"
      ],
      [
        "d",
        "i"
      ],
      [
        "p",
        "ec"
      ],
      [
        "r",
        "ate"
      ],
      [
        "t",
        "her"
      ],
      [
        "Ġw",
        "ell"
      ],
      [
        "Ġp",
        "racti"
      ],
      [
        "Ġo",
        "ver"
      ],
      [
        "ic",
        "al"
      ],
      [
        "ation",
        "s"
      ],
      [
        "Ġwork",
        "out"
      ],
      [
        "Ġbre",
        "a"
      ],
      [
        "Ġrel",
        "ax"
      ],
      [
        "e",
        "m"
      ],
      [
        "h",
        "ing"
      ],
      [
        "ti",
        "c"
      ],
      [
        "Ġm",
        "ed"
      ],
      [
        "Ġb",
        "y"
      ],
      [
        "Ġrout",
        "ine"
      ],
      [
        "u",
        "m"
      ],
      [
        "v",
        "en"
      ],
      [
        "Ġ",
        "ve"
      ],
      [
        "Ġa",
        "d"
      ],
      [
        "er",
        "s"
      ],
      [
        "Ġp",
        "re"
      ],
      [
        "tion",
        "s"
      ],
      [
        "Ġmin",
        "utes"
      ],
      [
        "e",
        "nd"
      ],
      [
        "g",
        "ies"
      ],
      [
        "t",
        "s"
      ],
      [
        "Ġn",
        "ut"
      ],
      [
        "Ġpro",
        "te"
      ],
      [
        "ĠEx",
        "ercise"
      ],
      [
        "Ġeffe",
        "ctive"
      ],
      [
        "rior",
        "iti"
      ],
      [
        "a",
        "ch"
      ],
      [
        "s",
        "ical"
      ],
      [
        "Ġm",
        "us"
      ],
      [
        "en",
        "ti"
      ],
      [
        "Ġg",
        "et"
      ],
      [
        "Ġpo",
        "si"
      ],
      [
        "hy",
        "sical"
      ],
      [
        "c",
        "es"
      ],
      [
        "u",
        "p"
      ],
      [
        "re",
        "en"
      ],
      [
        "Ġt",
        "ra"
      ],
      [
        "Ġal",
        "l"
      ],
      [
        "Ġactiv",
        "ities"
      ],
      [
        "i",
        "e"
      ],
      [
        "Ġ",
        "ke"
      ],
      [
        "Ġf",
        "ru"
      ],
      [
        "il",
        "y"
      ],
      [
        "Ġha",
        "ve"
      ],
      [
        "Ġmind",
        "ful"
      ],
      [
        "Ġve",
        "get"
      ],
      [
        "a",
        "st"
      ],
      [
        "c",
        "ed"
      ],
      [
        "v",
        "ing"
      ],
      [
        "v",
        "ent"
      ],
      [
        "Ġf",
        "at"
      ],
      [
        "Ġp",
        "hysical"
      ],
      [
        "Ġint",
        "o"
      ],
      [
        "Ġwe",
        "ight"
      ],
      [
        "Ġne",
        "ed"
      ],
      [
        "Ġimpro",
        "ve"
      ],
      [
        "rioriti",
        "ze"
      ],
      [
        "Ġs",
        "c"
      ],
      [
        "Ġs",
        "elf"
      ],
      [
        "on",
        "g"
      ],
      [
        "an",
        "ce"
      ],
      [
        "ar",
        "y"
      ],
      [
        "ic",
        "h"
      ],
      [
        "Ġst",
        "ay"
      ],
      [
        "Ġh",
        "ab"
      ],
      [
        "si",
        "on"
      ],
      [
        "ĠS",
        "et"
      ],
      [
        "Ġsu",
        "re"
      ],
      [
        "Ġth",
        "rou"
      ],
      [
        "ĠG",
        "et"
      ],
      [
        "Ġthrou",
        "gh"
      ],
      [
        "g",
        "es"
      ],
      [
        "i",
        "ps"
      ],
      [
        "r",
        "y"
      ],
      [
        "Ġ",
        "j"
      ],
      [
        "Ġ",
        "In"
      ],
      [
        "re",
        "t"
      ],
      [
        "Ġt",
        "e"
      ],
      [
        "Ġc",
        "ar"
      ],
      [
        "Ġw",
        "hen"
      ],
      [
        "ent",
        "al"
      ],
      [
        "ĠE",
        "at"
      ],
      [
        "as",
        "e"
      ],
      [
        "Ġwh",
        "o"
      ],
      [
        "b",
        "e"
      ],
      [
        "b",
        "le"
      ],
      [
        "g",
        "ing"
      ],
      [
        "o",
        "re"
      ],
      [
        "v",
        "id"
      ],
      [
        "Ġ",
        "U"
      ],
      [
        "Ġs",
        "h"
      ],
      [
        "it",
        "ation"
      ],
      [
        "it",
        "ness"
      ],
      [
        "Ġe",
        "ating"
      ],
      [
        "Ġnut",
        "ri"
      ],
      [
        "Ġmus",
        "c"
      ],
      [
        "Ġposi",
        "tive"
      ],
      [
        "Ġfru",
        "its"
      ],
      [
        "Ġhab",
        "its"
      ],
      [
        "c",
        "o"
      ],
      [
        "i",
        "et"
      ],
      [
        "o",
        "ga"
      ],
      [
        "Ġ",
        "qu"
      ],
      [
        "Ġ",
        "if"
      ],
      [
        "Ġs",
        "y"
      ],
      [
        "or",
        "por"
      ],
      [
        "Ġm",
        "ental"
      ],
      [
        "Ġg",
        "ra"
      ],
      [
        "âĢ",
        "ĵ"
      ],
      [
        "Ġbre",
        "at"
      ],
      [
        "ĠR",
        "e"
      ],
      [
        "abl",
        "es"
      ],
      [
        "Ġpre",
        "vent"
      ],
      [
        "Ġ",
        "L"
      ],
      [
        "ing",
        "s"
      ],
      [
        "Ġst",
        "rate"
      ],
      [
        "Ġst",
        "ret"
      ],
      [
        "Ġactiv",
        "ity"
      ],
      [
        "Ġway",
        "s"
      ],
      [
        "Ġveget",
        "ables"
      ],
      [
        "Ġstrate",
        "gies"
      ],
      [
        "'",
        "s"
      ],
      [
        "c",
        "t"
      ],
      [
        "l",
        "ud"
      ],
      [
        "o",
        "s"
      ],
      [
        "p",
        "t"
      ],
      [
        "Ġf",
        "itness"
      ],
      [
        "at",
        "er"
      ],
      [
        "Ġc",
        "le"
      ],
      [
        "er",
        "g"
      ],
      [
        "Ġm",
        "ake"
      ],
      [
        "Ġpro",
        "g"
      ],
      [
        "ĠC",
        "h"
      ],
      [
        "Ġbalan",
        "ced"
      ],
      [
        "Ġbrea",
        "ks"
      ],
      [
        "a",
        "king"
      ],
      [
        "c",
        "ess"
      ],
      [
        "c",
        "are"
      ],
      [
        "d",
        "u"
      ],
      [
        "u",
        "st"
      ],
      [
        "Ġ",
        "Y"
      ],
      [
        "Ġ",
        "us"
      ],
      [
        "on",
        "e"
      ],
      [
        "al",
        "ly"
      ],
      [
        "Ġo",
        "ther"
      ],
      [
        "is",
        "h"
      ],
      [
        "Ġthe",
        "m"
      ],
      [
        "si",
        "st"
      ],
      [
        "ch",
        "n"
      ],
      [
        "Ġex",
        "ercis"
      ],
      [
        "ĠA",
        "void"
      ],
      [
        "ĠC",
        "on"
      ],
      [
        "Ġregular",
        "ly"
      ],
      [
        "Ġsup",
        "port"
      ],
      [
        "Ġworkout",
        "s"
      ],
      [
        "Ġmed",
        "itation"
      ],
      [
        "Ġte",
        "chn"
      ],
      [
        "be",
        "ing"
      ],
      [
        "Ġa",
        "f"
      ],
      [
        "ou",
        "gh"
      ],
      [
        "is",
        "e"
      ],
      [
        "Ġn",
        "o"
      ],
      [
        "si",
        "d"
      ],
      [
        "Ġan",
        "y"
      ],
      [
        "if",
        "ic"
      ],
      [
        "Ġfe",
        "el"
      ],
      [
        "Ġmana",
        "ge"
      ],
      [
        "Ġke",
        "ep"
      ],
      [
        "orpor",
        "ate"
      ],
      [
        "c",
        "k"
      ],
      [
        "e",
        "k"
      ],
      [
        "f",
        "or"
      ],
      [
        "t",
        "en"
      ],
      [
        "Ġ",
        "up"
      ],
      [
        "re",
        "ate"
      ],
      [
        "ou",
        "nd"
      ],
      [
        "Ġy",
        "oga"
      ],
      [
        "ve",
        "l"
      ],
      [
        "il",
        "d"
      ],
      [
        "Ġim",
        "port"
      ],
      [
        "Ġinc",
        "lud"
      ],
      [
        "Ġmaintain",
        "ing"
      ],
      [
        "ren",
        "g"
      ],
      [
        "Ġrelax",
        "ation"
      ],
      [
        "a",
        "nd"
      ],
      [
        "e",
        "o"
      ],
      [
        "i",
        "ze"
      ],
      [
        "m",
        "un"
      ],
      [
        "p",
        "er"
      ],
      [
        "v",
        "ir"
      ],
      [
        "y",
        "d"
      ],
      [
        "Ġs",
        "n"
      ],
      [
        "Ġs",
        "et"
      ],
      [
        "Ġc",
        "l"
      ],
      [
        "Ġe",
        "ach"
      ],
      [
        "Ġpro",
        "mo"
      ],
      [
        "ch",
        "ing"
      ],
      [
        "Ġli",
        "fe"
      ],
      [
        "ĠF",
        "o"
      ],
      [
        "Ġso",
        "ci"
      ],
      [
        "Ġover",
        "all"
      ],
      [
        "Ġimport",
        "ant"
      ],
      [
        "i",
        "le"
      ],
      [
        "r",
        "in"
      ],
      [
        "Ġ",
        "O"
      ],
      [
        "Ġ",
        "âĢĵ"
      ],
      [
        "Ġa",
        "c"
      ],
      [
        "re",
        "ase"
      ],
      [
        "ou",
        "n"
      ],
      [
        "on",
        "ment"
      ],
      [
        "Ġp",
        "er"
      ],
      [
        "Ġb",
        "ut"
      ],
      [
        "Ġh",
        "ow"
      ],
      [
        "ĠT",
        "h"
      ],
      [
        "ĠA",
        "im"
      ],
      [
        "Ġwh",
        "ich"
      ],
      [
        "Ġfe",
        "w"
      ],
      [
        "Ġme",
        "als"
      ],
      [
        "Ġwho",
        "le"
      ],
      [
        "Ġmusc",
        "le"
      ],
      [
        "iet",
        "y"
      ],
      [
        "Ġbreat",
        "hing"
      ],
      [
        "vir",
        "onment"
      ],
      [
        "Ġsoci",
        "al"
      ],
      [
        "i",
        "st"
      ],
      [
        "i",
        "qu"
      ],
      [
        "o",
        "g"
      ],
      [
        "Ġa",
        "b"
      ],
      [
        "Ġa",
        "ir"
      ],
      [
        "re",
        "at"
      ],
      [
        "Ġt",
        "ake"
      ],
      [
        "Ġd",
        "a"
      ],
      [
        "ve",
        "lo"
      ],
      [
        "Ġe",
        "very"
      ],
      [
        "Ġpro",
        "vid"
      ],
      [
        "ĠI",
        "t"
      ],
      [
        "ch",
        "ie"
      ],
      [
        "Ġen",
        "vironment"
      ],
      [
        "Ġwh",
        "ile"
      ],
      [
        "Ġmo",
        "tiv"
      ],
      [
        "oo",
        "se"
      ],
      [
        "Ġwal",
        "k"
      ],
      [
        "enti",
        "al"
      ],
      [
        "Ġfat",
        "s"
      ],
      [
        "Ġthrough",
        "out"
      ],
      [
        "Ġexercis",
        "es"
      ],
      [
        "Ġsn",
        "ac"
      ],
      [
        "velo",
        "p"
      ],
      [
        "f",
        "ore"
      ],
      [
        "i",
        "b"
      ],
      [
        "l",
        "ow"
      ],
      [
        "n",
        "ing"
      ],
      [
        "Ġa",
        "chie"
      ],
      [
        "Ġs",
        "k"
      ],
      [
        "Ġs",
        "p"
      ],
      [
        "Ġs",
        "pec"
      ],
      [
        "Ġc",
        "al"
      ],
      [
        "it",
        "am"
      ],
      [
        "Ġb",
        "et"
      ],
      [
        "Ġe",
        "ven"
      ],
      [
        "ent",
        "s"
      ],
      [
        "Ġli",
        "f"
      ],
      [
        "ur",
        "ing"
      ],
      [
        "ĠB",
        "e"
      ],
      [
        "Ġtechn",
        "iqu"
      ],
      [
        "ĠTh",
        "is"
      ],
      [
        "Ġtechniqu",
        "es"
      ],
      [
        "u",
        "ild"
      ],
      [
        "Ġ",
        "-"
      ],
      [
        "Ġa",
        "void"
      ],
      [
        "in",
        "ing"
      ],
      [
        "Ġs",
        "mo"
      ],
      [
        "ti",
        "m"
      ],
      [
        "ou",
        "s"
      ],
      [
        "he",
        "du"
      ],
      [
        "ar",
        "d"
      ],
      [
        "Ġst",
        "reng"
      ],
      [
        "ĠE",
        "n"
      ],
      [
        "as",
        "s"
      ],
      [
        "ĠA",
        "d"
      ],
      [
        "âĢ",
        "¢"
      ],
      [
        "Ġhelp",
        "s"
      ],
      [
        "Ġmo",
        "re"
      ],
      [
        "rou",
        "nd"
      ],
      [
        "Ġbalan",
        "ce"
      ],
      [
        "Ġpl",
        "an"
      ],
      [
        "Ġprote",
        "ins"
      ],
      [
        "ĠRe",
        "gular"
      ],
      [
        "Ġprog",
        "ress"
      ],
      [
        "Ġda",
        "ily"
      ],
      [
        "Ġspec",
        "ific"
      ],
      [
        "hedu",
        "le"
      ],
      [
        "e",
        "ep"
      ],
      [
        "i",
        "ve"
      ],
      [
        "o",
        "y"
      ],
      [
        "r",
        "on"
      ],
      [
        "w",
        "e"
      ],
      [
        "y",
        "le"
      ],
      [
        "Ġ",
        "K"
      ],
      [
        "Ġ",
        "V"
      ],
      [
        "Ġ",
        "k"
      ],
      [
        "Ġt",
        "ips"
      ],
      [
        "Ġs",
        "m"
      ],
      [
        "at",
        "ur"
      ],
      [
        "Ġw",
        "hat"
      ],
      [
        "Ġd",
        "uring"
      ],
      [
        "Ġre",
        "co"
      ],
      [
        "Ġo",
        "p"
      ],
      [
        "ar",
        "ies"
      ],
      [
        "is",
        "k"
      ],
      [
        "ra",
        "tion"
      ],
      [
        "Ġsu",
        "g"
      ],
      [
        "Ġreduc",
        "ing"
      ],
      [
        "Ġle",
        "ast"
      ],
      [
        "Ġle",
        "vel"
      ],
      [
        "Ġinc",
        "rease"
      ],
      [
        "Ġwe",
        "ek"
      ],
      [
        "est",
        "yle"
      ],
      [
        "Ġde",
        "ep"
      ],
      [
        "Ġprote",
        "in"
      ],
      [
        "Ġsc",
        "reen"
      ],
      [
        "ĠIn",
        "c"
      ],
      [
        "ĠU",
        "se"
      ],
      [
        "Ġgra",
        "ins"
      ],
      [
        "erg",
        "y"
      ],
      [
        "sist",
        "ent"
      ],
      [
        "Ġaf",
        "ter"
      ],
      [
        "ound",
        "aries"
      ],
      [
        "Ġpromo",
        "te"
      ],
      [
        "ĠFo",
        "cus"
      ],
      [
        "Ġmotiv",
        "ated"
      ],
      [
        "Ġlif",
        "estyle"
      ],
      [
        "a",
        "ce"
      ],
      [
        "i",
        "g"
      ],
      [
        "i",
        "z"
      ],
      [
        "j",
        "oy"
      ],
      [
        "Ġ",
        "ess"
      ],
      [
        "Ġt",
        "aking"
      ],
      [
        "al",
        "ity"
      ],
      [
        "Ġc",
        "he"
      ],
      [
        "Ġw",
        "ater"
      ],
      [
        "Ġp",
        "rioritize"
      ],
      [
        "Ġp",
        "eo"
      ],
      [
        "st",
        "em"
      ],
      [
        "Ġre",
        "s"
      ],
      [
        "Ġre",
        "st"
      ],
      [
        "ic",
        "e"
      ],
      [
        "ic",
        "es"
      ],
      [
        "Ġl",
        "ong"
      ],
      [
        "Ġh",
        "our"
      ],
      [
        "Ġh",
        "yd"
      ],
      [
        "Ġpro",
        "cess"
      ],
      [
        "ĠE",
        "ating"
      ],
      [
        "Ġen",
        "ough"
      ],
      [
        "ĠP",
        "racti"
      ],
      [
        "ĠP",
        "rioritize"
      ],
      [
        "Ġpo",
        "st"
      ],
      [
        "Ġday",
        "s"
      ],
      [
        "Ġbe",
        "fore"
      ],
      [
        "Ġle",
        "an"
      ],
      [
        "Ġint",
        "ake"
      ],
      [
        "Ġv",
        "ar"
      ],
      [
        "Ġmana",
        "ging"
      ],
      [
        "Ġpracti",
        "ce"
      ],
      [
        "Ġcar",
        "b"
      ],
      [
        "Ġsy",
        "stem"
      ],
      [
        "Ġcle",
        "an"
      ],
      [
        "ĠCh",
        "oose"
      ],
      [
        "Ġsk",
        "in"
      ],
      [
        "Ġess",
        "ential"
      ],
      [
        "Ġpeo",
        "ple"
      ],
      [
        "'",
        "t"
      ],
      [
        "m",
        "ing"
      ],
      [
        "s",
        "ure"
      ],
      [
        "Ġ",
        "un"
      ],
      [
        "Ġa",
        "w"
      ],
      [
        "Ġs",
        "e"
      ],
      [
        "he",
        "s"
      ],
      [
        "tion",
        "al"
      ],
      [
        "Ġre",
        "m"
      ],
      [
        "Ġhe",
        "art"
      ],
      [
        "Ġthe",
        "re"
      ],
      [
        "Ġn",
        "ight"
      ],
      [
        "Ġpro",
        "duc"
      ],
      [
        "il",
        "ity"
      ],
      [
        "ĠT",
        "ry"
      ],
      [
        "Ġim",
        "mun"
      ],
      [
        "Ġen",
        "joy"
      ],
      [
        "Ġcon",
        "t"
      ],
      [
        "Ġcon",
        "sistent"
      ],
      [
        "ment",
        "s"
      ],
      [
        "Ġinc",
        "orporate"
      ],
      [
        "Ġwal",
        "king"
      ],
      [
        "ations",
        "h"
      ],
      [
        "Ġprovid",
        "e"
      ],
      [
        "Ġsm",
        "all"
      ],
      [
        "a",
        "k"
      ],
      [
        "a",
        "ir"
      ],
      [
        "c",
        "tion"
      ],
      [
        "g",
        "an"
      ],
      [
        "l",
        "d"
      ],
      [
        "o",
        "p"
      ],
      [
        "s",
        "o"
      ],
      [
        "v",
        "es"
      ],
      [
        "v",
        "ol"
      ],
      [
        "Ġa",
        "p"
      ],
      [
        "or",
        "s"
      ],
      [
        "en",
        "s"
      ],
      [
        "Ġb",
        "uild"
      ],
      [
        "Ġd",
        "on"
      ],
      [
        "Ġe",
        "mo"
      ],
      [
        "Ġh",
        "i"
      ],
      [
        "ĠI",
        "f"
      ],
      [
        "Ġdi",
        "ffe"
      ],
      [
        "Ġen",
        "ergy"
      ],
      [
        "ol",
        "l"
      ],
      [
        "Ġacti",
        "ve"
      ],
      [
        "Ġmo",
        "ve"
      ],
      [
        "Ġrel",
        "ationsh"
      ],
      [
        "ren",
        "t"
      ],
      [
        "abl",
        "ish"
      ],
      [
        "Ġget",
        "ting"
      ],
      [
        "Ġmindful",
        "ness"
      ],
      [
        "sid",
        "er"
      ],
      [
        "oun",
        "t"
      ],
      [
        "Ġab",
        "out"
      ],
      [
        "Ġsnac",
        "ks"
      ],
      [
        "ron",
        "ic"
      ],
      [
        "ĠK",
        "eep"
      ],
      [
        "Ġlevel",
        "s"
      ],
      [
        "Ġprocess",
        "ed"
      ],
      [
        "ĠPracti",
        "ce"
      ],
      [
        "e",
        "ar"
      ],
      [
        "f",
        "y"
      ],
      [
        "n",
        "ow"
      ],
      [
        "s",
        "si"
      ],
      [
        "Ġt",
        "as"
      ],
      [
        "ti",
        "l"
      ],
      [
        "Ġf",
        "ri"
      ],
      [
        "Ġf",
        "ind"
      ],
      [
        "Ġf",
        "am"
      ],
      [
        "es",
        "sion"
      ],
      [
        "Ġc",
        "reate"
      ],
      [
        "Ġm",
        "od"
      ],
      [
        "Ġp",
        "oll"
      ],
      [
        "Ġb",
        "ed"
      ],
      [
        "Ġd",
        "ise"
      ],
      [
        "Ġe",
        "m"
      ],
      [
        "is",
        "tic"
      ],
      [
        "im",
        "it"
      ],
      [
        "Ġof",
        "f"
      ],
      [
        "as",
        "es"
      ],
      [
        "Ġcon",
        "di"
      ],
      [
        "Ġr",
        "isk"
      ],
      [
        "ter",
        "n"
      ],
      [
        "ac",
        "t"
      ],
      [
        "Ġch",
        "ronic"
      ],
      [
        "ĠSt",
        "art"
      ],
      [
        "di",
        "o"
      ],
      [
        "pec",
        "t"
      ],
      [
        "Ġpracti",
        "c"
      ],
      [
        "end",
        "s"
      ],
      [
        "Ġtra",
        "ining"
      ],
      [
        "Ġneed",
        "s"
      ],
      [
        "Ġimmun",
        "e"
      ],
      [
        "Ġfam",
        "ily"
      ],
      [
        "a",
        "ge"
      ],
      [
        "c",
        "ou"
      ],
      [
        "c",
        "om"
      ],
      [
        "e",
        "ad"
      ],
      [
        "g",
        "g"
      ],
      [
        "h",
        "ol"
      ],
      [
        "l",
        "es"
      ],
      [
        "n",
        "ec"
      ],
      [
        "o",
        "t"
      ],
      [
        "r",
        "ated"
      ],
      [
        "v",
        "able"
      ],
      [
        "Ġ",
        "("
      ],
      [
        "Ġa",
        "round"
      ],
      [
        "Ġs",
        "im"
      ],
      [
        "Ġs",
        "om"
      ],
      [
        "or",
        "ning"
      ],
      [
        "al",
        "k"
      ],
      [
        "Ġf",
        "ul"
      ],
      [
        "Ġf",
        "res"
      ],
      [
        "Ġc",
        "lo"
      ],
      [
        "Ġp",
        "ers"
      ],
      [
        "Ġb",
        "oundaries"
      ],
      [
        "Ġre",
        "f"
      ],
      [
        "Ġre",
        "al"
      ],
      [
        "Ġe",
        "y"
      ],
      [
        "ro",
        "l"
      ],
      [
        "Ġin",
        "vol"
      ],
      [
        "et",
        "hing"
      ],
      [
        "Ġg",
        "u"
      ],
      [
        "Ġg",
        "reat"
      ],
      [
        "Ġst",
        "ep"
      ],
      [
        "alth",
        "y"
      ],
      [
        "Ġn",
        "atur"
      ],
      [
        "ĠA",
        "re"
      ],
      [
        "ĠP",
        "l"
      ],
      [
        "ĠP",
        "ro"
      ],
      [
        "Ġal",
        "so"
      ],
      [
        "Ġpo",
        "ssi"
      ],
      [
        "ac",
        "k"
      ],
      [
        "Ġv",
        "itam"
      ],
      [
        "Ġde",
        "velop"
      ],
      [
        "Ġcom",
        "ple"
      ],
      [
        "Ġbrea",
        "k"
      ],
      [
        "Ġcar",
        "dio"
      ],
      [
        "Ġqu",
        "ality"
      ],
      [
        "Ġstret",
        "ching"
      ],
      [
        "Ġus",
        "ing"
      ],
      [
        "Ġinclud",
        "e"
      ],
      [
        "Ġstreng",
        "th"
      ],
      [
        "Ġreco",
        "very"
      ],
      [
        "Ġhyd",
        "rated"
      ],
      [
        "Ġvar",
        "iety"
      ],
      [
        "Ġrem",
        "ind"
      ],
      [
        "Ġproduc",
        "ts"
      ],
      [
        "Ġdiffe",
        "rent"
      ],
      [
        "Ġfri",
        "ends"
      ],
      [
        "cou",
        "ra"
      ],
      [
        "Ġsom",
        "ething"
      ],
      [
        "Ġpossi",
        "ble"
      ],
      [
        "j",
        "ust"
      ],
      [
        "m",
        "s"
      ],
      [
        "o",
        "b"
      ],
      [
        "r",
        "ong"
      ],
      [
        "Ġ",
        "3"
      ],
      [
        "Ġ",
        "ri"
      ],
      [
        "re",
        "st"
      ],
      [
        "Ġt",
        "w"
      ],
      [
        "ou",
        "ld"
      ],
      [
        "on",
        "es"
      ],
      [
        "Ġf",
        "un"
      ],
      [
        "Ġc",
        "a"
      ],
      [
        "Ġp",
        "h"
      ],
      [
        "Ġb",
        "lo"
      ],
      [
        "le",
        "x"
      ],
      [
        "st",
        "ead"
      ],
      [
        "ar",
        "ity"
      ],
      [
        "Ġg",
        "reen"
      ],
      [
        "Ġl",
        "os"
      ],
      [
        "si",
        "ve"
      ],
      [
        "ĠT",
        "he"
      ],
      [
        "Ġex",
        "p"
      ],
      [
        "Ġex",
        "am"
      ],
      [
        "Ġli",
        "st"
      ],
      [
        "Ġim",
        "p"
      ],
      [
        "Ġen",
        "sure"
      ],
      [
        "ur",
        "n"
      ],
      [
        "Ġth",
        "ings"
      ],
      [
        "Ġmo",
        "st"
      ],
      [
        "ĠD",
        "e"
      ],
      [
        "Ġfocus",
        "ing"
      ],
      [
        "oo",
        "k"
      ],
      [
        "Ġall",
        "ow"
      ],
      [
        "Ġneed",
        "ed"
      ],
      [
        "Ġsc",
        "hedule"
      ],
      [
        "co",
        "hol"
      ],
      [
        "ĠY",
        "our"
      ],
      [
        "Ġcl",
        "arity"
      ],
      [
        "rin",
        "k"
      ],
      [
        "Ġac",
        "c"
      ],
      [
        "Ġachie",
        "vable"
      ],
      [
        "Ġhour",
        "s"
      ],
      [
        "Ġpost",
        "ure"
      ],
      [
        "Ġcarb",
        "s"
      ],
      [
        "Ġaw",
        "ay"
      ],
      [
        "Ġemo",
        "tional"
      ],
      [
        "Ġreal",
        "istic"
      ],
      [
        "Ġnatur",
        "al"
      ],
      [
        "'",
        "m"
      ],
      [
        "c",
        "hes"
      ],
      [
        "d",
        "o"
      ],
      [
        "e",
        "qu"
      ],
      [
        "m",
        "pt"
      ],
      [
        "r",
        "an"
      ],
      [
        "Ġ",
        "est"
      ],
      [
        "Ġt",
        "ry"
      ],
      [
        "Ġs",
        "low"
      ],
      [
        "ti",
        "t"
      ],
      [
        "on",
        "it"
      ],
      [
        "at",
        "es"
      ],
      [
        "at",
        "her"
      ],
      [
        "Ġc",
        "ol"
      ],
      [
        "Ġw",
        "he"
      ],
      [
        "Ġm",
        "orning"
      ],
      [
        "Ġre",
        "ad"
      ],
      [
        "uc",
        "e"
      ],
      [
        "ar",
        "k"
      ],
      [
        "ed",
        "uce"
      ],
      [
        "Ġg",
        "rou"
      ],
      [
        "Ġl",
        "ow"
      ],
      [
        "Ġl",
        "un"
      ],
      [
        "om",
        "s"
      ],
      [
        "Ġn",
        "ec"
      ],
      [
        "Ġsu",
        "n"
      ],
      [
        "por",
        "tive"
      ],
      [
        "Ġdi",
        "st"
      ],
      [
        "Ġcon",
        "s"
      ],
      [
        "Ġtim",
        "es"
      ],
      [
        "Ġal",
        "cohol"
      ],
      [
        "Ġgo",
        "od"
      ],
      [
        "ĠR",
        "educe"
      ],
      [
        "ĠD",
        "on"
      ],
      [
        "our",
        "ces"
      ],
      [
        "all",
        "en"
      ],
      [
        "Ġimpro",
        "ving"
      ],
      [
        "ĠF",
        "ind"
      ],
      [
        "Ġsup",
        "portive"
      ],
      [
        "Ġpracti",
        "ces"
      ],
      [
        "enti",
        "fy"
      ],
      [
        "Ġsh",
        "ould"
      ],
      [
        "Ġnutri",
        "ents"
      ],
      [
        "Ġsy",
        "mpt"
      ],
      [
        "Ġcle",
        "ar"
      ],
      [
        "Ġno",
        "t"
      ],
      [
        "sid",
        "e"
      ],
      [
        "Ġbet",
        "we"
      ],
      [
        "Ġsmo",
        "king"
      ],
      [
        "Ġk",
        "now"
      ],
      [
        "Ġsug",
        "ar"
      ],
      [
        "ig",
        "n"
      ],
      [
        "Ġhi",
        "gh"
      ],
      [
        "Ġrelationsh",
        "ips"
      ],
      [
        "Ġtas",
        "ks"
      ],
      [
        "Ġfres",
        "h"
      ],
      [
        "Ġpers",
        "on"
      ],
      [
        "Ġ3",
        "0"
      ],
      [
        "Ġfun",
        "ction"
      ],
      [
        "equ",
        "ate"
      ],
      [
        "onit",
        "or"
      ],
      [
        "Ġsympt",
        "oms"
      ],
      [
        "Ġbetwe",
        "en"
      ],
      [
        "a",
        "v"
      ],
      [
        "a",
        "il"
      ],
      [
        "c",
        "y"
      ],
      [
        "c",
        "tions"
      ],
      [
        "f",
        "ic"
      ],
      [
        "g",
        "er"
      ],
      [
        "i",
        "al"
      ],
      [
        "l",
        "ing"
      ],
      [
        "m",
        "e"
      ],
      [
        "p",
        "e"
      ],
      [
        "u",
        "es"
      ],
      [
        "x",
        "iety"
      ],
      [
        "Ġa",
        "m"
      ],
      [
        "re",
        "e"
      ],
      [
        "Ġs",
        "ources"
      ],
      [
        "he",
        "althy"
      ],
      [
        "Ġf",
        "lex"
      ],
      [
        "at",
        "s"
      ],
      [
        "Ġm",
        "ay"
      ],
      [
        "Ġp",
        "ain"
      ],
      [
        "ut",
        "e"
      ],
      [
        "Ġto",
        "x"
      ],
      [
        "Ġre",
        "g"
      ],
      [
        "Ġst",
        "rong"
      ],
      [
        "ow",
        "n"
      ],
      [
        "Ġpro",
        "per"
      ],
      [
        "ess",
        "ary"
      ],
      [
        "as",
        "ed"
      ],
      [
        "ind",
        "ful"
      ],
      [
        "ĠM",
        "indful"
      ],
      [
        "ĠC",
        "reate"
      ],
      [
        "Ġal",
        "tern"
      ],
      [
        "Ġwork",
        "ing"
      ],
      [
        "Ġan",
        "xiety"
      ],
      [
        "ur",
        "t"
      ],
      [
        "Ġgo",
        "ing"
      ],
      [
        "ĠR",
        "es"
      ],
      [
        "ĠD",
        "rink"
      ],
      [
        "Ġch",
        "an"
      ],
      [
        "Ġch",
        "allen"
      ],
      [
        "ga",
        "tive"
      ],
      [
        "Ġne",
        "gative"
      ],
      [
        "Ġout",
        "do"
      ],
      [
        "ĠSt",
        "ay"
      ],
      [
        "Ġad",
        "v"
      ],
      [
        "Ġtra",
        "ck"
      ],
      [
        "Ġnutri",
        "tion"
      ],
      [
        "ĠL",
        "imit"
      ],
      [
        "Ġstret",
        "ches"
      ],
      [
        "Ġus",
        "e"
      ],
      [
        "ĠCon",
        "s"
      ],
      [
        "ib",
        "ility"
      ],
      [
        "Ġbet",
        "ter"
      ],
      [
        "ĠInc",
        "orporate"
      ],
      [
        "Ġap",
        "p"
      ],
      [
        "Ġmod",
        "er"
      ],
      [
        "Ġcondi",
        "tions"
      ],
      [
        "Ġpractic",
        "al"
      ],
      [
        "Ġsim",
        "ple"
      ],
      [
        "Ġful",
        "l"
      ],
      [
        "coura",
        "ge"
      ],
      [
        "Ġblo",
        "od"
      ],
      [
        "Ġlos",
        "s"
      ],
      [
        "Ġimp",
        "act"
      ],
      [
        "Ġest",
        "ablish"
      ],
      [
        "a",
        "tive"
      ],
      [
        "b",
        "er"
      ],
      [
        "c",
        "ent"
      ],
      [
        "d",
        "er"
      ],
      [
        "f",
        "ession"
      ],
      [
        "u",
        "nd"
      ],
      [
        "w",
        "w"
      ],
      [
        "w",
        "ork"
      ],
      [
        "in",
        "es"
      ],
      [
        "Ġt",
        "y"
      ],
      [
        "Ġt",
        "ri"
      ],
      [
        "Ġs",
        "qu"
      ],
      [
        "Ġs",
        "tic"
      ],
      [
        "Ġc",
        "o"
      ],
      [
        "Ġc",
        "er"
      ],
      [
        "Ġw",
        "ww"
      ],
      [
        "en",
        "e"
      ],
      [
        "en",
        "ce"
      ],
      [
        "en",
        "se"
      ],
      [
        "it",
        "al"
      ],
      [
        "Ġb",
        "est"
      ],
      [
        "Ġd",
        "es"
      ],
      [
        "ar",
        "m"
      ],
      [
        "Ġe",
        "nd"
      ],
      [
        "Ġe",
        "at"
      ],
      [
        "Ġin",
        "te"
      ],
      [
        "im",
        "ming"
      ],
      [
        "ic",
        "k"
      ],
      [
        "ent",
        "y"
      ],
      [
        "ra",
        "p"
      ],
      [
        "ra",
        "in"
      ],
      [
        "Ġh",
        "un"
      ],
      [
        "Ġor",
        "gan"
      ],
      [
        "ul",
        "tiv"
      ],
      [
        "od",
        "s"
      ],
      [
        "Ġpro",
        "fession"
      ],
      [
        "Ġex",
        "t"
      ],
      [
        "Ġ1",
        "0"
      ],
      [
        "Ġli",
        "ght"
      ],
      [
        "id",
        "s"
      ],
      [
        "Ġdi",
        "g"
      ],
      [
        "ĠM",
        "ed"
      ],
      [
        "Ġen",
        "ga"
      ],
      [
        "ĠC",
        "an"
      ],
      [
        "Ġcon",
        "nec"
      ],
      [
        "Ġr",
        "un"
      ],
      [
        "ter",
        "m"
      ],
      [
        "Ġth",
        "an"
      ],
      [
        "Ġth",
        "is"
      ],
      [
        "Ġch",
        "o"
      ],
      [
        "ĠB",
        "re"
      ],
      [
        "Ġde",
        "v"
      ],
      [
        "ci",
        "um"
      ],
      [
        "ud",
        "e"
      ],
      [
        "Ġat",
        "ten"
      ],
      [
        "Ġpl",
        "enty"
      ],
      [
        "Ġdo",
        "ing"
      ],
      [
        "Ġad",
        "equate"
      ],
      [
        "Ġke",
        "y"
      ],
      [
        "Ġj",
        "ust"
      ],
      [
        "Ġmusc",
        "les"
      ],
      [
        "Ġno",
        "ise"
      ],
      [
        "Ġenvironment",
        "al"
      ],
      [
        "Ġdise",
        "ases"
      ],
      [
        "Ġem",
        "p"
      ],
      [
        "Ġgu",
        "id"
      ],
      [
        "Ġvitam",
        "ins"
      ],
      [
        "Ġri",
        "ght"
      ],
      [
        "Ġph",
        "one"
      ],
      [
        "ĠDe",
        "velop"
      ],
      [
        "tit",
        "ude"
      ],
      [
        "Ġread",
        "ing"
      ],
      [
        "Ġnec",
        "essary"
      ],
      [
        "Ġdist",
        "ra"
      ],
      [
        "Ġflex",
        "ibility"
      ],
      [
        "ĠMindful",
        "ness"
      ],
      [
        "Ġchan",
        "ges"
      ],
      [
        "Ġtri",
        "gg"
      ],
      [
        "Ġstic",
        "k"
      ],
      [
        "Ġcer",
        "tain"
      ],
      [
        "Ġinte",
        "rest"
      ],
      [
        "Ġprofession",
        "al"
      ],
      [
        "Ġatten",
        "tion"
      ],
      [
        "Q",
        "u"
      ],
      [
        "b",
        "rate"
      ],
      [
        "c",
        "ular"
      ],
      [
        "c",
        "hedule"
      ],
      [
        "e",
        "le"
      ],
      [
        "f",
        "ir"
      ],
      [
        "i",
        "o"
      ],
      [
        "l",
        "ine"
      ],
      [
        "m",
        "end"
      ],
      [
        "n",
        "er"
      ],
      [
        "p",
        "end"
      ],
      [
        "s",
        "c"
      ],
      [
        "t",
        "y"
      ],
      [
        "t",
        "ec"
      ],
      [
        "t",
        "hen"
      ],
      [
        "u",
        "ps"
      ],
      [
        "v",
        "as"
      ],
      [
        "w",
        "ard"
      ],
      [
        "w",
        "imming"
      ],
      [
        "Ġ",
        "N"
      ],
      [
        "Ġ",
        "ro"
      ],
      [
        "Ġ",
        "und"
      ],
      [
        "Ġ",
        "Qu"
      ],
      [
        "Ġs",
        "it"
      ],
      [
        "Ġs",
        "wimming"
      ],
      [
        "Ġm",
        "om"
      ],
      [
        "Ġm",
        "uch"
      ],
      [
        "en",
        "cy"
      ],
      [
        "Ġb",
        "us"
      ],
      [
        "Ġb",
        "one"
      ],
      [
        "Ġb",
        "ene"
      ],
      [
        "Ġd",
        "is"
      ],
      [
        "Ġd",
        "rin"
      ],
      [
        "Ġre",
        "com"
      ],
      [
        "Ġg",
        "l"
      ],
      [
        "Ġl",
        "im"
      ],
      [
        "Ġh",
        "ome"
      ],
      [
        "Ġor",
        "der"
      ],
      [
        "ul",
        "t"
      ],
      [
        "Ġhealth",
        "care"
      ],
      [
        "ate",
        "a"
      ],
      [
        "ĠS",
        "chedule"
      ],
      [
        "ĠS",
        "pend"
      ],
      [
        "Ġon",
        "e"
      ],
      [
        "Ġ1",
        "5"
      ],
      [
        "ĠE",
        "ven"
      ],
      [
        "ĠW",
        "ear"
      ],
      [
        "Ġdi",
        "ges"
      ],
      [
        "ĠH",
        "e"
      ],
      [
        "ol",
        "es"
      ],
      [
        "Ġcon",
        "tain"
      ],
      [
        "Ġcon",
        "sider"
      ],
      [
        "Ġcon",
        "cent"
      ],
      [
        "ple",
        "ments"
      ],
      [
        "Ġha",
        "ir"
      ],
      [
        "Ġne",
        "w"
      ],
      [
        "ĠG",
        "o"
      ],
      [
        "ĠSt",
        "ress"
      ],
      [
        "Ġcom",
        "put"
      ],
      [
        "Ġmed",
        "ic"
      ],
      [
        "Ġad",
        "d"
      ],
      [
        "Ġnut",
        "s"
      ],
      [
        "Ġfat",
        "ty"
      ],
      [
        "Ġqu",
        "ick"
      ],
      [
        "ĠY",
        "ou"
      ],
      [
        "ĠCon",
        "sider"
      ],
      [
        "for",
        "m"
      ],
      [
        "for",
        "t"
      ],
      [
        "Ġinclud",
        "es"
      ],
      [
        "Ġcl",
        "ass"
      ],
      [
        "Ġcal",
        "cium"
      ],
      [
        "itam",
        "in"
      ],
      [
        "tim",
        "e"
      ],
      [
        "Ġop",
        "tions"
      ],
      [
        "Ġscreen",
        "ings"
      ],
      [
        "Ġche",
        "m"
      ],
      [
        "ak",
        "es"
      ],
      [
        "Ġmove",
        "ment"
      ],
      [
        "Ġbed",
        "time"
      ],
      [
        "Ġcardio",
        "vas"
      ],
      [
        "Ġtw",
        "o"
      ],
      [
        "Ġexp",
        "os"
      ],
      [
        "Ġexam",
        "ple"
      ],
      [
        "Ġlist",
        "en"
      ],
      [
        "Ġgrou",
        "ps"
      ],
      [
        "Ġperson",
        "al"
      ],
      [
        "Ġam",
        "ount"
      ],
      [
        "ĠRes",
        "pect"
      ],
      [
        "Ġsqu",
        "ats"
      ],
      [
        "Ġdes",
        "k"
      ],
      [
        "Ġdig",
        "ital"
      ],
      [
        "Ġcho",
        "ices"
      ],
      [
        "ele",
        "brate"
      ],
      [
        "Ġund",
        "er"
      ],
      [
        "Ġrecom",
        "mend"
      ],
      [
        "Ġcardiovas",
        "cular"
      ],
      [
        "c",
        "c"
      ],
      [
        "c",
        "er"
      ],
      [
        "d",
        "entify"
      ],
      [
        "g",
        "o"
      ],
      [
        "i",
        "p"
      ],
      [
        "i",
        "er"
      ],
      [
        "i",
        "als"
      ],
      [
        "m",
        "on"
      ],
      [
        "n",
        "iti"
      ],
      [
        "n",
        "am"
      ],
      [
        "p",
        "l"
      ],
      [
        "u",
        "tion"
      ],
      [
        "w",
        "n"
      ],
      [
        "Ġ",
        "id"
      ],
      [
        "Ġa",
        "g"
      ],
      [
        "Ġa",
        "er"
      ],
      [
        "in",
        "ate"
      ],
      [
        "Ġt",
        "ran"
      ],
      [
        "Ġs",
        "port"
      ],
      [
        "Ġs",
        "til"
      ],
      [
        "ti",
        "ous"
      ],
      [
        "ou",
        "ght"
      ],
      [
        "or",
        "t"
      ],
      [
        "or",
        "ie"
      ],
      [
        "Ġf",
        "l"
      ],
      [
        "Ġc",
        "ultiv"
      ],
      [
        "Ġm",
        "ater"
      ],
      [
        "Ġp",
        "res"
      ],
      [
        "an",
        "y"
      ],
      [
        "Ġb",
        "i"
      ],
      [
        "Ġb",
        "r"
      ],
      [
        "Ġto",
        "o"
      ],
      [
        "st",
        "er"
      ],
      [
        "st",
        "and"
      ],
      [
        "st",
        "eo"
      ],
      [
        "Ġre",
        "le"
      ],
      [
        "Ġo",
        "steo"
      ],
      [
        "ve",
        "d"
      ],
      [
        "Ġe",
        "l"
      ],
      [
        "ro",
        "w"
      ],
      [
        "Ġin",
        "di"
      ],
      [
        "Ġin",
        "stead"
      ],
      [
        "im",
        "e"
      ],
      [
        "Ġthe",
        "ir"
      ],
      [
        "Ġthe",
        "se"
      ],
      [
        "Ġg",
        "ain"
      ],
      [
        "Ġg",
        "ive"
      ],
      [
        "ic",
        "als"
      ],
      [
        "Ġl",
        "o"
      ],
      [
        "Ġl",
        "ate"
      ],
      [
        "ul",
        "ts"
      ],
      [
        "el",
        "y"
      ],
      [
        "Ġn",
        "our"
      ],
      [
        "Ġpro",
        "ble"
      ],
      [
        "Ġpro",
        "tec"
      ],
      [
        "il",
        "ates"
      ],
      [
        "ĠI",
        "dentify"
      ],
      [
        "ep",
        "t"
      ],
      [
        "ri",
        "b"
      ],
      [
        "ĠA",
        "n"
      ],
      [
        "ĠA",
        "s"
      ],
      [
        "Ġli",
        "ving"
      ],
      [
        "ĠW",
        "ork"
      ],
      [
        "ĠW",
        "hen"
      ],
      [
        "ĠM",
        "o"
      ],
      [
        "ĠM",
        "onitor"
      ],
      [
        "ĠH",
        "yd"
      ],
      [
        "ĠC",
        "om"
      ],
      [
        "ol",
        "og"
      ],
      [
        "Ġr",
        "ather"
      ],
      [
        "Ġle",
        "ad"
      ],
      [
        "Ġth",
        "ought"
      ],
      [
        "ĠR",
        "em"
      ],
      [
        "ffe",
        "ine"
      ],
      [
        "Ġha",
        "nd"
      ],
      [
        "oo",
        "st"
      ],
      [
        "hy",
        "d"
      ],
      [
        "Ġme",
        "et"
      ],
      [
        "Ġsup",
        "plements"
      ],
      [
        "Ġwal",
        "ks"
      ],
      [
        "Ġad",
        "just"
      ],
      [
        "Ġmus",
        "ic"
      ],
      [
        "ces",
        "sive"
      ],
      [
        "Ġall",
        "erg"
      ],
      [
        "Ġsh",
        "ort"
      ],
      [
        "Ġnutri",
        "tious"
      ],
      [
        "Ġgra",
        "titude"
      ],
      [
        "Ġbreat",
        "h"
      ],
      [
        "Ġstret",
        "ch"
      ],
      [
        "Ġaf",
        "fir"
      ],
      [
        "ĠO",
        "pt"
      ],
      [
        "og",
        "niti"
      ],
      [
        "ib",
        "er"
      ],
      [
        "Ġcal",
        "orie"
      ],
      [
        "Ġstreng",
        "then"
      ],
      [
        "ĠV",
        "itamin"
      ],
      [
        "Ġop",
        "tim"
      ],
      [
        "Ġsug",
        "ary"
      ],
      [
        "iz",
        "ing"
      ],
      [
        "iz",
        "ation"
      ],
      [
        "Ġche",
        "ck"
      ],
      [
        "Ġclean",
        "ing"
      ],
      [
        "Ġun",
        "healthy"
      ],
      [
        "Ġenjoy",
        "able"
      ],
      [
        "Ġcont",
        "rib"
      ],
      [
        "Ġpoll",
        "ution"
      ],
      [
        "Ġey",
        "es"
      ],
      [
        "Ġinvol",
        "ves"
      ],
      [
        "Ġstep",
        "s"
      ],
      [
        "Ġca",
        "ffeine"
      ],
      [
        "Ġacc",
        "ount"
      ],
      [
        "Ġslow",
        "ly"
      ],
      [
        "Ġwhe",
        "re"
      ],
      [
        "Ġtox",
        "ins"
      ],
      [
        "Ġrun",
        "ning"
      ],
      [
        "Ġdistra",
        "ctions"
      ],
      [
        "Ġtrigg",
        "ers"
      ],
      [
        "sc",
        "reen"
      ],
      [
        "Ġbus",
        "y"
      ],
      [
        "Ġdrin",
        "ks"
      ],
      [
        "Ġconcent",
        "ration"
      ],
      [
        "Ġcomput",
        "er"
      ],
      [
        "Ġchem",
        "icals"
      ],
      [
        "Ġexpos",
        "ure"
      ],
      [
        "Ġunder",
        "stand"
      ],
      [
        "Ġtran",
        "s"
      ],
      [
        "Ġstil",
        "l"
      ],
      [
        "Ġmater",
        "ials"
      ],
      [
        "Ġosteo",
        "por"
      ],
      [
        "olog",
        "y"
      ],
      [
        "Ġaffir",
        "m"
      ],
      [
        "ogniti",
        "ve"
      ],
      [
        ")",
        ":"
      ],
      [
        "1",
        "0"
      ],
      [
        "a",
        "si"
      ],
      [
        "b",
        "io"
      ],
      [
        "c",
        "ing"
      ],
      [
        "c",
        "le"
      ],
      [
        "d",
        "uction"
      ],
      [
        "f",
        "fic"
      ],
      [
        "i",
        "ed"
      ],
      [
        "i",
        "ally"
      ],
      [
        "i",
        "ence"
      ],
      [
        "l",
        "ated"
      ],
      [
        "m",
        "ed"
      ],
      [
        "n",
        "e"
      ],
      [
        "o",
        "in"
      ],
      [
        "o",
        "th"
      ],
      [
        "o",
        "very"
      ],
      [
        "p",
        "es"
      ],
      [
        "s",
        "ity"
      ],
      [
        "u",
        "al"
      ],
      [
        "u",
        "ri"
      ],
      [
        "u",
        "res"
      ],
      [
        "v",
        "ail"
      ],
      [
        "y",
        "nam"
      ],
      [
        "Ġ",
        "es"
      ],
      [
        "Ġ",
        "ur"
      ],
      [
        "Ġa",
        "im"
      ],
      [
        "Ġa",
        "ge"
      ],
      [
        "Ġa",
        "ble"
      ],
      [
        "Ġa",
        "side"
      ],
      [
        "Ġa",
        "vail"
      ],
      [
        "in",
        "k"
      ],
      [
        "in",
        "for"
      ],
      [
        "in",
        "ten"
      ],
      [
        "re",
        "qu"
      ],
      [
        "re",
        "lated"
      ],
      [
        "Ġt",
        "re"
      ],
      [
        "Ġt",
        "em"
      ],
      [
        "Ġs",
        "a"
      ],
      [
        "Ġs",
        "l"
      ],
      [
        "Ġs",
        "en"
      ],
      [
        "Ġs",
        "uc"
      ],
      [
        "Ġs",
        "od"
      ],
      [
        "Ġs",
        "ession"
      ],
      [
        "Ġs",
        "ign"
      ],
      [
        "or",
        "y"
      ],
      [
        "Ġf",
        "ive"
      ],
      [
        "Ġf",
        "iber"
      ],
      [
        "Ġf",
        "requ"
      ],
      [
        "Ġc",
        "ra"
      ],
      [
        "Ġc",
        "ore"
      ],
      [
        "Ġc",
        "oun"
      ],
      [
        "Ġc",
        "ognitive"
      ],
      [
        "Ġw",
        "or"
      ],
      [
        "Ġp",
        "or"
      ],
      [
        "Ġp",
        "art"
      ],
      [
        "an",
        "ge"
      ],
      [
        "Ġb",
        "ec"
      ],
      [
        "Ġb",
        "ones"
      ],
      [
        "Ġb",
        "urn"
      ],
      [
        "Ġb",
        "ook"
      ],
      [
        "Ġb",
        "oost"
      ],
      [
        "ut",
        "ri"
      ],
      [
        "le",
        "v"
      ],
      [
        "le",
        "ct"
      ],
      [
        "Ġd",
        "ark"
      ],
      [
        "Ġd",
        "own"
      ],
      [
        "Ġre",
        "str"
      ],
      [
        "Ġre",
        "ach"
      ],
      [
        "Ġre",
        "infor"
      ],
      [
        "Ġo",
        "wn"
      ],
      [
        "ar",
        "ing"
      ],
      [
        "ar",
        "ting"
      ],
      [
        "Ġin",
        "ter"
      ],
      [
        "im",
        "inate"
      ],
      [
        "Ġof",
        "ten"
      ],
      [
        "Ġfor",
        "m"
      ],
      [
        "Ġg",
        "row"
      ],
      [
        "Ġst",
        "a"
      ],
      [
        "Ġst",
        "art"
      ],
      [
        "Ġst",
        "and"
      ],
      [
        "Ġst",
        "arting"
      ],
      [
        "ra",
        "m"
      ],
      [
        "Ġl",
        "oo"
      ],
      [
        "Ġh",
        "y"
      ],
      [
        "ul",
        "ation"
      ],
      [
        "Ġhealth",
        "ier"
      ],
      [
        "ow",
        "er"
      ],
      [
        "Ġn",
        "um"
      ],
      [
        "us",
        "e"
      ],
      [
        "us",
        "h"
      ],
      [
        "si",
        "tiv"
      ],
      [
        "ab",
        "ility"
      ],
      [
        "Ġfo",
        "ster"
      ],
      [
        "ĠS",
        "h"
      ],
      [
        "ĠS",
        "leep"
      ],
      [
        "ĠT",
        "ra"
      ],
      [
        "ĠT",
        "aking"
      ],
      [
        "ĠT",
        "alk"
      ],
      [
        "ĠT",
        "ime"
      ],
      [
        "Ġex",
        "cessive"
      ],
      [
        "Ġwith",
        "out"
      ],
      [
        "ĠM",
        "ana"
      ],
      [
        "un",
        "ct"
      ],
      [
        "ĠP",
        "ilates"
      ],
      [
        "ec",
        "overy"
      ],
      [
        "Ġan",
        "ti"
      ],
      [
        "Ġr",
        "ich"
      ],
      [
        "ter",
        "ol"
      ],
      [
        "Ġpo",
        "t"
      ],
      [
        "Ġle",
        "a"
      ],
      [
        "ĠR",
        "ecovery"
      ],
      [
        "ĠD",
        "iet"
      ],
      [
        "Ġch",
        "ild"
      ],
      [
        "Ġch",
        "oles"
      ],
      [
        "lo",
        "y"
      ],
      [
        "lo",
        "ad"
      ],
      [
        "ĠB",
        "alan"
      ],
      [
        "ĠB",
        "oundaries"
      ],
      [
        "Ġwe",
        "e"
      ],
      [
        "Ġdiet",
        "ary"
      ],
      [
        "Ġpl",
        "atea"
      ],
      [
        "ĠSt",
        "reng"
      ],
      [
        "Ġcom",
        "fort"
      ],
      [
        "tiv",
        "es"
      ],
      [
        "pec",
        "ially"
      ],
      [
        "Ġwell",
        "being"
      ],
      [
        "Ġeffective",
        "ly"
      ],
      [
        "up",
        "unct"
      ],
      [
        "Ġtra",
        "vel"
      ],
      [
        "ast",
        "e"
      ],
      [
        "Ġstay",
        "ing"
      ],
      [
        "ĠIn",
        "stead"
      ],
      [
        "ĠU",
        "til"
      ],
      [
        "Ġprevent",
        "ing"
      ],
      [
        "ĠL",
        "ist"
      ],
      [
        "os",
        "is"
      ],
      [
        "Ġprog",
        "res"
      ],
      [
        "du",
        "ally"
      ],
      [
        "ĠY",
        "oga"
      ],
      [
        "Ġother",
        "s"
      ],
      [
        "ish",
        "ment"
      ],
      [
        "sist",
        "ency"
      ],
      [
        "Ġexercis",
        "ing"
      ],
      [
        "Ġtechn",
        "ology"
      ],
      [
        "Ġfeel",
        "ing"
      ],
      [
        "Ġper",
        "i"
      ],
      [
        "Ġper",
        "form"
      ],
      [
        "Ġsocial",
        "izing"
      ],
      [
        "Ġachie",
        "ve"
      ],
      [
        "Ġsp",
        "end"
      ],
      [
        "Ġsp",
        "ace"
      ],
      [
        "Ġeven",
        "ing"
      ],
      [
        "Ġsmo",
        "ke"
      ],
      [
        "ĠAd",
        "just"
      ],
      [
        "Ġscreen",
        "s"
      ],
      [
        "Ġcont",
        "rol"
      ],
      [
        "Ġdise",
        "ase"
      ],
      [
        "Ġclo",
        "se"
      ],
      [
        "Ġey",
        "e"
      ],
      [
        "Ġcomple",
        "x"
      ],
      [
        "Ġcomple",
        "te"
      ],
      [
        "ob",
        "ic"
      ],
      [
        "Ġlow",
        "er"
      ],
      [
        "Ġlun",
        "ch"
      ],
      [
        "Ġsun",
        "screen"
      ],
      [
        "Ġfunction",
        "ing"
      ],
      [
        "av",
        "or"
      ],
      [
        "Ġoutdo",
        "ors"
      ],
      [
        "Ġadv",
        "ice"
      ],
      [
        "ĠCons",
        "um"
      ],
      [
        "Ġmoder",
        "ate"
      ],
      [
        "work",
        "out"
      ],
      [
        "rap",
        "y"
      ],
      [
        "Ġext",
        "ra"
      ],
      [
        "Ġenga",
        "ge"
      ],
      [
        "ĠBre",
        "ak"
      ],
      [
        "Ġdev",
        "ices"
      ],
      [
        "Ġlim",
        "its"
      ],
      [
        "Ġdiges",
        "tive"
      ],
      [
        "Ġaer",
        "obic"
      ],
      [
        "Ġsport",
        "s"
      ],
      [
        "Ġindi",
        "vid"
      ],
      [
        "ĠAn",
        "y"
      ],
      [
        "ĠAs",
        "k"
      ],
      [
        "Ġthought",
        "s"
      ],
      [
        "Ġallerg",
        "ens"
      ],
      [
        "Ġcontrib",
        "ute"
      ],
      [
        "Ġosteopor",
        "osis"
      ],
      [
        "Ġaffirm",
        "ations"
      ],
      [
        "bio",
        "tic"
      ],
      [
        "ynam",
        "ic"
      ],
      [
        "Ġes",
        "pecially"
      ],
      [
        "Ġavail",
        "able"
      ],
      [
        "inten",
        "sity"
      ],
      [
        "Ġsen",
        "sitiv"
      ],
      [
        "Ġsuc",
        "cess"
      ],
      [
        "Ġfrequ",
        "ent"
      ],
      [
        "Ġcra",
        "ving"
      ],
      [
        "Ġburn",
        "out"
      ],
      [
        "Ġrestr",
        "ic"
      ],
      [
        "Ġgrow",
        "th"
      ],
      [
        "Ġchild",
        "ren"
      ],
      [
        "Ġcholes",
        "terol"
      ],
      [
        "Ġcomfort",
        "able"
      ],
      [
        "upunct",
        "ure"
      ],
      [
        "ĠUtil",
        "ize"
      ],
      [
        "ĠList",
        "en"
      ],
      [
        "Ġperform",
        "ance"
      ],
      [
        "2",
        "0"
      ],
      [
        "a",
        "g"
      ],
      [
        "a",
        "i"
      ],
      [
        "b",
        "s"
      ],
      [
        "b",
        "ac"
      ],
      [
        "b",
        "ers"
      ],
      [
        "b",
        "ased"
      ],
      [
        "d",
        "ing"
      ],
      [
        "e",
        "es"
      ],
      [
        "f",
        "s"
      ],
      [
        "f",
        "ied"
      ],
      [
        "g",
        "in"
      ],
      [
        "g",
        "gies"
      ],
      [
        "i",
        "a"
      ],
      [
        "i",
        "re"
      ],
      [
        "i",
        "an"
      ],
      [
        "i",
        "ent"
      ],
      [
        "i",
        "um"
      ],
      [
        "m",
        "p"
      ],
      [
        "n",
        "ight"
      ],
      [
        "o",
        "se"
      ],
      [
        "o",
        "pt"
      ],
      [
        "o",
        "hyd"
      ],
      [
        "p",
        "p"
      ],
      [
        "p",
        "on"
      ],
      [
        "p",
        "tion"
      ],
      [
        "p",
        "air"
      ],
      [
        "r",
        "it"
      ],
      [
        "r",
        "ant"
      ],
      [
        "r",
        "ich"
      ],
      [
        "r",
        "gan"
      ],
      [
        "r",
        "ates"
      ],
      [
        "s",
        "et"
      ],
      [
        "t",
        "he"
      ],
      [
        "t",
        "ed"
      ],
      [
        "u",
        "e"
      ],
      [
        "u",
        "ally"
      ],
      [
        "v",
        "est"
      ],
      [
        "w",
        "he"
      ],
      [
        "Ġ",
        "7"
      ],
      [
        "Ġ",
        "8"
      ],
      [
        "re",
        "ating"
      ],
      [
        "Ġt",
        "ough"
      ],
      [
        "Ġt",
        "reat"
      ],
      [
        "Ġs",
        "ol"
      ],
      [
        "Ġs",
        "atur"
      ],
      [
        "Ġs",
        "ens"
      ],
      [
        "ti",
        "ci"
      ],
      [
        "he",
        "d"
      ],
      [
        "Ġf",
        "il"
      ],
      [
        "Ġf",
        "ir"
      ],
      [
        "Ġf",
        "ast"
      ],
      [
        "Ġf",
        "low"
      ],
      [
        "at",
        "ure"
      ],
      [
        "Ġc",
        "are"
      ],
      [
        "Ġc",
        "elebrate"
      ],
      [
        "er",
        "als"
      ],
      [
        "er",
        "gies"
      ],
      [
        "Ġw",
        "on"
      ],
      [
        "Ġw",
        "ind"
      ],
      [
        "Ġm",
        "et"
      ],
      [
        "Ġm",
        "onitor"
      ],
      [
        "Ġm",
        "akes"
      ],
      [
        "en",
        "tion"
      ],
      [
        "Ġp",
        "a"
      ],
      [
        "Ġp",
        "rior"
      ],
      [
        "it",
        "ate"
      ],
      [
        "Ġb",
        "at"
      ],
      [
        "Ġb",
        "ow"
      ],
      [
        "Ġb",
        "ud"
      ],
      [
        "Ġb",
        "ack"
      ],
      [
        "Ġb",
        "rain"
      ],
      [
        "ut",
        "ter"
      ],
      [
        "tion",
        "ally"
      ],
      [
        "st",
        "ablish"
      ],
      [
        "Ġd",
        "ec"
      ],
      [
        "Ġd",
        "am"
      ],
      [
        "Ġre",
        "mo"
      ],
      [
        "Ġre",
        "pair"
      ],
      [
        "Ġo",
        "me"
      ],
      [
        "ar",
        "n"
      ],
      [
        "ar",
        "ge"
      ],
      [
        "Ġe",
        "vent"
      ],
      [
        "Ġhe",
        "al"
      ],
      [
        "et",
        "es"
      ],
      [
        "im",
        "ize"
      ],
      [
        "Ġthe",
        "n"
      ],
      [
        "Ġthe",
        "y"
      ],
      [
        "Ġg",
        "ut"
      ],
      [
        "ic",
        "ate"
      ],
      [
        "Ġl",
        "imit"
      ],
      [
        "Ġh",
        "arm"
      ],
      [
        "Ġcan",
        "cer"
      ],
      [
        "ul",
        "ate"
      ],
      [
        "ow",
        "s"
      ],
      [
        "Ġn",
        "urt"
      ],
      [
        "ab",
        "etes"
      ],
      [
        "Ġon",
        "line"
      ],
      [
        "ĠE",
        "stablish"
      ],
      [
        "Ġas",
        "k"
      ],
      [
        "ly",
        "ing"
      ],
      [
        "Ġsu",
        "r"
      ],
      [
        "ĠW",
        "he"
      ],
      [
        "Ġdi",
        "abetes"
      ],
      [
        "ĠM",
        "any"
      ],
      [
        "Ġim",
        "age"
      ],
      [
        "ĠH",
        "a"
      ],
      [
        "Ġen",
        "courage"
      ],
      [
        "ress",
        "ure"
      ],
      [
        "ĠP",
        "o"
      ],
      [
        "ur",
        "ance"
      ],
      [
        "ter",
        "s"
      ],
      [
        "Ġpo",
        "in"
      ],
      [
        "Ġle",
        "g"
      ],
      [
        "Ġle",
        "arn"
      ],
      [
        "ac",
        "ing"
      ],
      [
        "Ġit",
        "em"
      ],
      [
        "port",
        "ation"
      ],
      [
        "Ġch",
        "oose"
      ],
      [
        "Ġch",
        "air"
      ],
      [
        "ple",
        "ment"
      ],
      [
        "Ġint",
        "ention"
      ],
      [
        "Ġbody",
        "we"
      ],
      [
        "Ġv",
        "is"
      ],
      [
        "Ġv",
        "ib"
      ],
      [
        "ĠG",
        "ra"
      ],
      [
        "Ġmind",
        "set"
      ],
      [
        "Ġmin",
        "erals"
      ],
      [
        "Ġout",
        "side"
      ],
      [
        "ĠF",
        "or"
      ],
      [
        "ant",
        "s"
      ],
      [
        "Ġpl",
        "ay"
      ],
      [
        "Ġcom",
        "mun"
      ],
      [
        "Ġme",
        "as"
      ],
      [
        "Ġdo",
        "es"
      ],
      [
        "Ġdo",
        "ct"
      ],
      [
        "Ġso",
        "re"
      ],
      [
        "Ġwell",
        "ness"
      ],
      [
        "Ġover",
        "whe"
      ],
      [
        "em",
        "ber"
      ],
      [
        "Ġve",
        "ggies"
      ],
      [
        "Ġall",
        "ergies"
      ],
      [
        "Ġfru",
        "it"
      ],
      [
        "Ġj",
        "our"
      ],
      [
        "Ġj",
        "ob"
      ],
      [
        "be",
        "aring"
      ],
      [
        "vid",
        "e"
      ],
      [
        "Ġnutri",
        "ent"
      ],
      [
        "orpor",
        "ating"
      ],
      [
        "ĠCon",
        "sistency"
      ],
      [
        "ten",
        "sion"
      ],
      [
        "Ġinclud",
        "ing"
      ],
      [
        "per",
        "tension"
      ],
      [
        "Ġset",
        "ting"
      ],
      [
        "Ġset",
        "bac"
      ],
      [
        "Ġpromo",
        "ting"
      ],
      [
        "ĠFo",
        "ods"
      ],
      [
        "ĠO",
        "rgan"
      ],
      [
        "Ġac",
        "ids"
      ],
      [
        "ĠEn",
        "ough"
      ],
      [
        "ĠEn",
        "sure"
      ],
      [
        "ĠEn",
        "courage"
      ],
      [
        "ĠAd",
        "d"
      ],
      [
        "ĠV",
        "ary"
      ],
      [
        "Ġweek",
        "ly"
      ],
      [
        "ĠInc",
        "rease"
      ],
      [
        "Ġres",
        "pon"
      ],
      [
        "Ġhyd",
        "ration"
      ],
      [
        "Ġvar",
        "i"
      ],
      [
        "Ġcarb",
        "ohyd"
      ],
      [
        "Ġaw",
        "are"
      ],
      [
        "Ġse",
        "e"
      ],
      [
        "Ġsmall",
        "er"
      ],
      [
        "air",
        "s"
      ],
      [
        "Ġap",
        "pro"
      ],
      [
        "Ġbuild",
        "ing"
      ],
      [
        "Ġrelationsh",
        "ip"
      ],
      [
        "Ġpoll",
        "en"
      ],
      [
        "Ġcondi",
        "tion"
      ],
      [
        "Ġpractic",
        "ing"
      ],
      [
        "rol",
        "ling"
      ],
      [
        "Ġinvol",
        "ve"
      ],
      [
        "Ġvitam",
        "in"
      ],
      [
        "Ġremind",
        "ers"
      ],
      [
        "Ġallow",
        "s"
      ],
      [
        "Ġwhe",
        "ther"
      ],
      [
        "Ġaltern",
        "ative"
      ],
      [
        "Ġoutdo",
        "or"
      ],
      [
        "ĠCons",
        "ult"
      ],
      [
        "Ġmoder",
        "ation"
      ],
      [
        "Ġty",
        "pe"
      ],
      [
        "Ġend",
        "urance"
      ],
      [
        "Ġhun",
        "ger"
      ],
      [
        "Ġorgan",
        "ic"
      ],
      [
        "ĠMed",
        "itation"
      ],
      [
        "Ġemp",
        "loy"
      ],
      [
        "ĠN",
        "utri"
      ],
      [
        "ĠQu",
        "ality"
      ],
      [
        "Ġsit",
        "ting"
      ],
      [
        "Ġmom",
        "ents"
      ],
      [
        "Ġbene",
        "f"
      ],
      [
        "Ġgl",
        "ass"
      ],
      [
        "Ġ15",
        "0"
      ],
      [
        "Ġmedic",
        "ation"
      ],
      [
        "go",
        "v"
      ],
      [
        "Ġid",
        "entify"
      ],
      [
        "Ġag",
        "ain"
      ],
      [
        "Ġcultiv",
        "ate"
      ],
      [
        "Ġpres",
        "ent"
      ],
      [
        "Ġbi",
        "king"
      ],
      [
        "Ġbr",
        "isk"
      ],
      [
        "Ġel",
        "iminate"
      ],
      [
        "Ġproble",
        "ms"
      ],
      [
        "Ġprotec",
        "t"
      ],
      [
        "ĠHyd",
        "ration"
      ],
      [
        "ĠRem",
        "ember"
      ],
      [
        "Ġaccount",
        "ability"
      ],
      [
        "Ġtrans",
        "portation"
      ],
      [
        "Ġpor",
        "tion"
      ],
      [
        "Ġreinfor",
        "ces"
      ],
      [
        "Ġloo",
        "king"
      ],
      [
        "Ġhy",
        "pertension"
      ],
      [
        "ĠTra",
        "ck"
      ],
      [
        "ĠMana",
        "ge"
      ],
      [
        "Ġpot",
        "ential"
      ],
      [
        "Ġprogres",
        "sive"
      ],
      [
        "Ġcraving",
        "s"
      ],
      [
        "Ġsatur",
        "ated"
      ],
      [
        "Ġfir",
        "st"
      ],
      [
        "Ġome",
        "ga"
      ],
      [
        "Ġevent",
        "s"
      ],
      [
        "Ġharm",
        "ful"
      ],
      [
        "Ġnurt",
        "ure"
      ],
      [
        "Ġitem",
        "s"
      ],
      [
        "Ġbodywe",
        "ight"
      ],
      [
        "Ġvib",
        "rant"
      ],
      [
        "Ġdoct",
        "or"
      ],
      [
        "Ġoverwhe",
        "l"
      ],
      [
        "Ġsetbac",
        "ks"
      ],
      [
        "Ġcarbohyd",
        "rates"
      ],
      [
        "Ġemploy",
        "ees"
      ],
      [
        "'",
        "ve"
      ],
      [
        "a",
        "p"
      ],
      [
        "a",
        "sion"
      ],
      [
        "a",
        "tives"
      ],
      [
        "b",
        "an"
      ],
      [
        "b",
        "il"
      ],
      [
        "b",
        "alan"
      ],
      [
        "c",
        "upuncture"
      ],
      [
        "d",
        "ay"
      ],
      [
        "e",
        "ti"
      ],
      [
        "e",
        "ver"
      ],
      [
        "e",
        "ek"
      ],
      [
        "f",
        "f"
      ],
      [
        "f",
        "l"
      ],
      [
        "f",
        "ree"
      ],
      [
        "g",
        "ar"
      ],
      [
        "h",
        "ins"
      ],
      [
        "h",
        "ance"
      ],
      [
        "i",
        "on"
      ],
      [
        "k",
        "es"
      ],
      [
        "l",
        "in"
      ],
      [
        "l",
        "low"
      ],
      [
        "l",
        "ace"
      ],
      [
        "m",
        "in"
      ],
      [
        "m",
        "it"
      ],
      [
        "n",
        "the"
      ],
      [
        "o",
        "ther"
      ],
      [
        "o",
        "ining"
      ],
      [
        "p",
        "ace"
      ],
      [
        "p",
        "hins"
      ],
      [
        "r",
        "uc"
      ],
      [
        "r",
        "ic"
      ],
      [
        "s",
        "or"
      ],
      [
        "s",
        "ations"
      ],
      [
        "s",
        "pace"
      ],
      [
        "t",
        "ent"
      ],
      [
        "t",
        "alk"
      ],
      [
        "t",
        "rol"
      ],
      [
        "u",
        "el"
      ],
      [
        "u",
        "als"
      ],
      [
        "v",
        "al"
      ],
      [
        "w",
        "ater"
      ],
      [
        "x",
        "t"
      ],
      [
        "y",
        "c"
      ],
      [
        "z",
        "ing"
      ],
      [
        "Ġ",
        "5"
      ],
      [
        "Ġ",
        "z"
      ],
      [
        "Ġ",
        "ing"
      ],
      [
        "Ġ",
        "âĢ"
      ],
      [
        "Ġ",
        "rolling"
      ],
      [
        "Ġa",
        "ct"
      ],
      [
        "Ġa",
        "ids"
      ],
      [
        "in",
        "ter"
      ],
      [
        "in",
        "ue"
      ],
      [
        "re",
        "duc"
      ],
      [
        "re",
        "di"
      ],
      [
        "re",
        "ct"
      ],
      [
        "re",
        "me"
      ],
      [
        "re",
        "ative"
      ],
      [
        "Ġt",
        "alk"
      ],
      [
        "Ġt",
        "urn"
      ],
      [
        "Ġt",
        "aste"
      ],
      [
        "Ġs",
        "al"
      ],
      [
        "Ġs",
        "ed"
      ],
      [
        "Ġs",
        "am"
      ],
      [
        "ti",
        "an"
      ],
      [
        "ou",
        "se"
      ],
      [
        "nd",
        "s"
      ],
      [
        "or",
        "m"
      ],
      [
        "or",
        "ding"
      ],
      [
        "or",
        "phins"
      ],
      [
        "al",
        "e"
      ],
      [
        "Ġf",
        "ish"
      ],
      [
        "Ġf",
        "ree"
      ],
      [
        "at",
        "or"
      ],
      [
        "at",
        "ch"
      ],
      [
        "Ġc",
        "ir"
      ],
      [
        "Ġc",
        "op"
      ],
      [
        "Ġc",
        "yc"
      ],
      [
        "Ġc",
        "reative"
      ],
      [
        "er",
        "ic"
      ],
      [
        "Ġw",
        "rit"
      ],
      [
        "Ġm",
        "on"
      ],
      [
        "Ġm",
        "is"
      ],
      [
        "Ġm",
        "il"
      ],
      [
        "Ġm",
        "as"
      ],
      [
        "Ġm",
        "aking"
      ],
      [
        "Ġy",
        "og"
      ],
      [
        "en",
        "er"
      ],
      [
        "Ġp",
        "e"
      ],
      [
        "Ġp",
        "ark"
      ],
      [
        "Ġp",
        "ush"
      ],
      [
        "Ġp",
        "ressure"
      ],
      [
        "it",
        "e"
      ],
      [
        "it",
        "ting"
      ],
      [
        "it",
        "tent"
      ],
      [
        "Ġb",
        "and"
      ],
      [
        "Ġb",
        "ased"
      ],
      [
        "Ġto",
        "get"
      ],
      [
        "le",
        "d"
      ],
      [
        "le",
        "ag"
      ],
      [
        "st",
        "ain"
      ],
      [
        "Ġd",
        "ynamic"
      ],
      [
        "Ġre",
        "ch"
      ],
      [
        "Ġre",
        "qu"
      ],
      [
        "Ġre",
        "sist"
      ],
      [
        "Ġre",
        "ward"
      ],
      [
        "Ġo",
        "k"
      ],
      [
        "Ġo",
        "ve"
      ],
      [
        "Ġo",
        "il"
      ],
      [
        "Ġo",
        "cc"
      ],
      [
        "ar",
        "ming"
      ],
      [
        "ar",
        "tici"
      ],
      [
        "Ġe",
        "f"
      ],
      [
        "Ġe",
        "asi"
      ],
      [
        "ro",
        "om"
      ],
      [
        "Ġhe",
        "ad"
      ],
      [
        "Ġin",
        "s"
      ],
      [
        "et",
        "work"
      ],
      [
        "ed",
        "s"
      ],
      [
        "ed",
        "ies"
      ],
      [
        "Ġfor",
        "ms"
      ],
      [
        "Ġg",
        "y"
      ],
      [
        "Ġg",
        "ent"
      ],
      [
        "Ġg",
        "rate"
      ],
      [
        "Ġg",
        "ather"
      ],
      [
        "ent",
        "ary"
      ],
      [
        "Ġst",
        "airs"
      ],
      [
        "ra",
        "ble"
      ],
      [
        "Ġl",
        "ast"
      ],
      [
        "Ġl",
        "ot"
      ],
      [
        "Ġl",
        "ook"
      ],
      [
        "Ġh",
        "as"
      ],
      [
        "Ġh",
        "ol"
      ],
      [
        "Ġh",
        "ard"
      ],
      [
        "Ġh",
        "ot"
      ],
      [
        "Ġn",
        "etwork"
      ],
      [
        "Ġpro",
        "duction"
      ],
      [
        "Ġpro",
        "biotic"
      ],
      [
        "us",
        "es"
      ],
      [
        "si",
        "bil"
      ],
      [
        "il",
        "t"
      ],
      [
        "il",
        "ar"
      ],
      [
        "ĠI",
        "m"
      ],
      [
        "ĠI",
        "s"
      ],
      [
        "Ġfo",
        "am"
      ],
      [
        "ĠS",
        "im"
      ],
      [
        "ĠS",
        "mo"
      ],
      [
        "ĠS",
        "up"
      ],
      [
        "ĠS",
        "eek"
      ],
      [
        "ĠT",
        "oo"
      ],
      [
        "ĠT",
        "ai"
      ],
      [
        "Ġon",
        "es"
      ],
      [
        "Ġex",
        "per"
      ],
      [
        "Ġex",
        "pect"
      ],
      [
        "Ġare",
        "n"
      ],
      [
        "Ġare",
        "as"
      ],
      [
        "ĠA",
        "cc"
      ],
      [
        "ĠA",
        "cupuncture"
      ],
      [
        "âĢ",
        "Ŀ"
      ],
      [
        "Ġsu",
        "stain"
      ],
      [
        "ĠW",
        "e"
      ],
      [
        "Ġdi",
        "eti"
      ],
      [
        "Ġdi",
        "rect"
      ],
      [
        "Ġen",
        "coura"
      ],
      [
        "Ġen",
        "hance"
      ],
      [
        "ver",
        "sations"
      ],
      [
        "ĠC",
        "elebrate"
      ],
      [
        "Ġcon",
        "ven"
      ],
      [
        "Ġcon",
        "versations"
      ],
      [
        "un",
        "ks"
      ],
      [
        "ĠP",
        "hysical"
      ],
      [
        "ĠP",
        "artici"
      ],
      [
        "Ġal",
        "er"
      ],
      [
        "Ġal",
        "ign"
      ],
      [
        "Ġwork",
        "space"
      ],
      [
        "Ġan",
        "other"
      ],
      [
        "Ġreduc",
        "es"
      ],
      [
        "Ġbe",
        "en"
      ],
      [
        "Ġth",
        "ose"
      ],
      [
        "Ġmo",
        "od"
      ],
      [
        "am",
        "m"
      ],
      [
        "ĠR",
        "el"
      ],
      [
        "ĠR",
        "ep"
      ],
      [
        "ffe",
        "e"
      ],
      [
        "ĠD",
        "o"
      ],
      [
        "ĠD",
        "ist"
      ],
      [
        "Ġinc",
        "re"
      ],
      [
        "Ġinc",
        "orporating"
      ],
      [
        "if",
        "y"
      ],
      [
        "Ġint",
        "ense"
      ],
      [
        "ĠB",
        "reat"
      ],
      [
        "ĠB",
        "uild"
      ],
      [
        "ad",
        "l"
      ],
      [
        "Ġha",
        "ving"
      ],
      [
        "Ġv",
        "al"
      ],
      [
        "Ġstress",
        "ors"
      ],
      [
        "Ġdiet",
        "s"
      ],
      [
        "ĠG",
        "ive"
      ],
      [
        "Ġde",
        "adl"
      ],
      [
        "ru",
        "st"
      ],
      [
        "ru",
        "pt"
      ],
      [
        "ru",
        "gg"
      ],
      [
        "Ġmin",
        "imize"
      ],
      [
        "ci",
        "ation"
      ],
      [
        "ci",
        "ous"
      ],
      [
        "Ġimpro",
        "ves"
      ],
      [
        "ĠF",
        "itness"
      ],
      [
        "ĠSt",
        "ret"
      ],
      [
        "Ġcom",
        "b"
      ],
      [
        "Ġcom",
        "p"
      ],
      [
        "Ġcom",
        "mon"
      ],
      [
        "Ġme",
        "m"
      ],
      [
        "Ġme",
        "al"
      ],
      [
        "Ġme",
        "an"
      ],
      [
        "Ġwill",
        "ing"
      ],
      [
        "di",
        "tionally"
      ],
      [
        "Ġmed",
        "ical"
      ],
      [
        "Ġmed",
        "ia"
      ],
      [
        "um",
        "es"
      ],
      [
        "Ġad",
        "ults"
      ],
      [
        "Ġpre",
        "p"
      ],
      [
        "rioriti",
        "zing"
      ],
      [
        "Ġposi",
        "tion"
      ],
      [
        "Ġtra",
        "c"
      ],
      [
        "Ġveget",
        "ation"
      ],
      [
        "Ġweight",
        "s"
      ],
      [
        "ĠGet",
        "ting"
      ],
      [
        "Ġj",
        "og"
      ],
      [
        "Ġj",
        "oin"
      ],
      [
        "ore",
        "d"
      ],
      [
        "ĠU",
        "V"
      ],
      [
        "ĠU",
        "n"
      ],
      [
        "Ġsh",
        "are"
      ],
      [
        "ĠL",
        "et"
      ],
      [
        "ĠL",
        "ook"
      ],
      [
        "lud",
        "e"
      ],
      [
        "Ġprog",
        "ram"
      ],
      [
        "ĠCh",
        "i"
      ],
      [
        "ĠCh",
        "ange"
      ],
      [
        "ĠCon",
        "trol"
      ],
      [
        "mun",
        "icate"
      ],
      [
        "Ġcl",
        "utter"
      ],
      [
        "ĠO",
        "p"
      ],
      [
        "ist",
        "uri"
      ],
      [
        "Ġab",
        "sor"
      ],
      [
        "Ġprovid",
        "er"
      ],
      [
        "Ġsnac",
        "k"
      ],
      [
        "Ġsnac",
        "king"
      ],
      [
        "Ġcal",
        "ming"
      ],
      [
        "ĠBe",
        "fore"
      ],
      [
        "Ġavoid",
        "ing"
      ],
      [
        "ĠEn",
        "ga"
      ],
      [
        "ĠAd",
        "ditionally"
      ],
      [
        "Ġreco",
        "ver"
      ],
      [
        "Ġdeep",
        "ly"
      ],
      [
        "ĠInc",
        "lude"
      ],
      [
        "Ġres",
        "pect"
      ],
      [
        "Ġres",
        "ults"
      ],
      [
        "Ġlong",
        "er"
      ],
      [
        "Ġse",
        "ated"
      ],
      [
        "Ġse",
        "ven"
      ],
      [
        "Ġse",
        "eds"
      ],
      [
        "Ġrem",
        "edies"
      ],
      [
        "Ġcont",
        "inue"
      ],
      [
        "ens",
        "ity"
      ],
      [
        "Ġhi",
        "kes"
      ],
      [
        "Ġmove",
        "ments"
      ],
      [
        "Ġtas",
        "k"
      ],
      [
        "Ġfind",
        "ing"
      ],
      [
        "Ġpoll",
        "ut"
      ],
      [
        "Ġbed",
        "room"
      ],
      [
        "Ġoff",
        "er"
      ],
      [
        "Ġoff",
        "ice"
      ],
      [
        "Ġsim",
        "ilar"
      ],
      [
        "Ġclo",
        "s"
      ],
      [
        "Ġref",
        "res"
      ],
      [
        "ĠPl",
        "ant"
      ],
      [
        "ĠPl",
        "ace"
      ],
      [
        "ĠPro",
        "vide"
      ],
      [
        "Ġdevelop",
        "ing"
      ],
      [
        "Ġdevelop",
        "ment"
      ],
      [
        "Ġri",
        "d"
      ],
      [
        "Ġtw",
        "ice"
      ],
      [
        "Ġgreen",
        "s"
      ],
      [
        "ĠThe",
        "se"
      ],
      [
        "Ġacc",
        "ording"
      ],
      [
        "Ġcol",
        "or"
      ],
      [
        "Ġcol",
        "leag"
      ],
      [
        "Ġgrou",
        "p"
      ],
      [
        "Ġlun",
        "ges"
      ],
      [
        "Ġcons",
        "um"
      ],
      [
        "Ġcons",
        "cious"
      ],
      [
        "Ġclear",
        "ly"
      ],
      [
        "fic",
        "ial"
      ],
      [
        "Ġtox",
        "ic"
      ],
      [
        "Ġreg",
        "im"
      ],
      [
        "Ġproper",
        "ly"
      ],
      [
        "Ġaltern",
        "atives"
      ],
      [
        "Ġchallen",
        "ge"
      ],
      [
        "Ġchallen",
        "ges"
      ],
      [
        "Ġchallen",
        "ging"
      ],
      [
        "Ġadv",
        "ance"
      ],
      [
        "Ġty",
        "pes"
      ],
      [
        "Ġco",
        "ol"
      ],
      [
        "Ġco",
        "ffee"
      ],
      [
        "Ġend",
        "orphins"
      ],
      [
        "Ġext",
        "reme"
      ],
      [
        "Ġenga",
        "ging"
      ],
      [
        "term",
        "ittent"
      ],
      [
        "Ġdev",
        "ice"
      ],
      [
        "Ġemp",
        "h"
      ],
      [
        "Ġguid",
        "ed"
      ],
      [
        "Ġmom",
        "ent"
      ],
      [
        "Ġbene",
        "ficial"
      ],
      [
        "Ġdis",
        "cus"
      ],
      [
        "ĠHe",
        "althy"
      ],
      [
        "Ġclass",
        "es"
      ],
      [
        "Ġlisten",
        "ing"
      ],
      [
        "Ġrele",
        "ases"
      ],
      [
        "Ġlo",
        "c"
      ],
      [
        "Ġnour",
        "ishment"
      ],
      [
        "ĠCom",
        "municate"
      ],
      [
        "Ġoptim",
        "ize"
      ],
      [
        "Ġunderstand",
        "ing"
      ],
      [
        "ffic",
        "ient"
      ],
      [
        "Ġur",
        "ban"
      ],
      [
        "Ġtre",
        "es"
      ],
      [
        "Ġsod",
        "ium"
      ],
      [
        "Ġsession",
        "s"
      ],
      [
        "Ġsign",
        "ific"
      ],
      [
        "Ġcoun",
        "ts"
      ],
      [
        "Ġbec",
        "ome"
      ],
      [
        "Ġsta",
        "tic"
      ],
      [
        "ĠSh",
        "ow"
      ],
      [
        "Ġwee",
        "ke"
      ],
      [
        "Ġplatea",
        "u"
      ],
      [
        "ĠStreng",
        "th"
      ],
      [
        "Ġtravel",
        "ing"
      ],
      [
        "Ġperi",
        "od"
      ],
      [
        "Ġspend",
        "ing"
      ],
      [
        "Ġindivid",
        "ual"
      ],
      [
        "Ġsensitiv",
        "ity"
      ],
      [
        "Ġsuccess",
        "es"
      ],
      [
        "Ġsol",
        "ar"
      ],
      [
        "Ġfast",
        "ing"
      ],
      [
        "Ġwind",
        "ows"
      ],
      [
        "Ġprior",
        "ity"
      ],
      [
        "Ġbat",
        "h"
      ],
      [
        "Ġbow",
        "l"
      ],
      [
        "Ġremo",
        "ve"
      ],
      [
        "Ġsur",
        "round"
      ],
      [
        "ĠWhe",
        "ther"
      ],
      [
        "ĠHa",
        "ve"
      ],
      [
        "Ġleg",
        "umes"
      ],
      [
        "ĠGra",
        "dually"
      ],
      [
        "Ġplay",
        "ing"
      ],
      [
        "Ġsore",
        "ness"
      ],
      [
        "Ġrespon",
        "sibil"
      ],
      [
        "Ġvari",
        "ous"
      ],
      [
        "Ġappro",
        "ach"
      ],
      [
        "ĠNutri",
        "tion"
      ],
      [
        "Ġoverwhel",
        "med"
      ],
      [
        "asion",
        "al"
      ],
      [
        "balan",
        "ced"
      ],
      [
        "fl",
        "amm"
      ],
      [
        "nthe",
        "tic"
      ],
      [
        "Ġing",
        "redi"
      ],
      [
        "ĠâĢ",
        "ľ"
      ],
      [
        "Ġact",
        "ually"
      ],
      [
        "reduc",
        "ing"
      ],
      [
        "Ġsed",
        "entary"
      ],
      [
        "Ġsam",
        "e"
      ],
      [
        "Ġcir",
        "c"
      ],
      [
        "Ġmas",
        "k"
      ],
      [
        "Ġyog",
        "urt"
      ],
      [
        "Ġtoget",
        "her"
      ],
      [
        "Ġrech",
        "arge"
      ],
      [
        "Ġrequ",
        "ire"
      ],
      [
        "Ġresist",
        "ance"
      ],
      [
        "Ġove",
        "reating"
      ],
      [
        "Ġocc",
        "asional"
      ],
      [
        "Ġgent",
        "le"
      ],
      [
        "Ġgrate",
        "ful"
      ],
      [
        "Ġgather",
        "ings"
      ],
      [
        "ĠSmo",
        "king"
      ],
      [
        "Ġexper",
        "ience"
      ],
      [
        "ĠAcc",
        "ept"
      ],
      [
        "Ġdieti",
        "tian"
      ],
      [
        "Ġencoura",
        "ges"
      ],
      [
        "ĠPartici",
        "p"
      ],
      [
        "ĠDist",
        "ra"
      ],
      [
        "rugg",
        "ling"
      ],
      [
        "ĠStret",
        "ching"
      ],
      [
        "Ġabsor",
        "b"
      ],
      [
        "Ġaccording",
        "ly"
      ],
      [
        "Ġcolleag",
        "ues"
      ],
      [
        "Ġresponsibil",
        "ities"
      ],
      [
        "Ġingredi",
        "ents"
      ],
      [
        "'",
        "re"
      ],
      [
        ")",
        "."
      ],
      [
        "C",
        "s"
      ],
      [
        "C",
        "are"
      ],
      [
        "D",
        "L"
      ],
      [
        "O",
        "Cs"
      ],
      [
        "a",
        "w"
      ],
      [
        "a",
        "ks"
      ],
      [
        "a",
        "ges"
      ],
      [
        "a",
        "pt"
      ],
      [
        "a",
        "ger"
      ],
      [
        "b",
        "ar"
      ],
      [
        "b",
        "od"
      ],
      [
        "b",
        "ody"
      ],
      [
        "b",
        "ad"
      ],
      [
        "b",
        "oo"
      ],
      [
        "b",
        "ack"
      ],
      [
        "c",
        "ting"
      ],
      [
        "c",
        "ell"
      ],
      [
        "c",
        "ts"
      ],
      [
        "c",
        "ept"
      ],
      [
        "d",
        "y"
      ],
      [
        "d",
        "own"
      ],
      [
        "d",
        "ense"
      ],
      [
        "e",
        "re"
      ],
      [
        "e",
        "as"
      ],
      [
        "f",
        "ol"
      ],
      [
        "f",
        "ter"
      ],
      [
        "f",
        "ill"
      ],
      [
        "g",
        "i"
      ],
      [
        "g",
        "l"
      ],
      [
        "g",
        "n"
      ],
      [
        "g",
        "s"
      ],
      [
        "g",
        "ress"
      ],
      [
        "g",
        "ry"
      ],
      [
        "g",
        "ran"
      ],
      [
        "h",
        "o"
      ],
      [
        "h",
        "and"
      ],
      [
        "h",
        "av"
      ],
      [
        "h",
        "ods"
      ],
      [
        "h",
        "ale"
      ],
      [
        "i",
        "x"
      ],
      [
        "i",
        "fe"
      ],
      [
        "k",
        "ra"
      ],
      [
        "l",
        "it"
      ],
      [
        "l",
        "us"
      ],
      [
        "l",
        "ate"
      ],
      [
        "l",
        "ife"
      ],
      [
        "m",
        "us"
      ],
      [
        "m",
        "eric"
      ],
      [
        "n",
        "al"
      ],
      [
        "n",
        "ce"
      ],
      [
        "o",
        "x"
      ],
      [
        "o",
        "fs"
      ],
      [
        "p",
        "ri"
      ],
      [
        "p",
        "as"
      ],
      [
        "r",
        "bs"
      ],
      [
        "s",
        "er"
      ],
      [
        "s",
        "our"
      ],
      [
        "s",
        "ues"
      ],
      [
        "t",
        "es"
      ],
      [
        "t",
        "ra"
      ],
      [
        "t",
        "ure"
      ],
      [
        "u",
        "b"
      ],
      [
        "u",
        "er"
      ],
      [
        "u",
        "ations"
      ],
      [
        "u",
        "gar"
      ],
      [
        "u",
        "rable"
      ],
      [
        "v",
        "erc"
      ],
      [
        "v",
        "ity"
      ],
      [
        "y",
        "ing"
      ],
      [
        "z",
        "es"
      ],
      [
        "z",
        "en"
      ],
      [
        "z",
        "ard"
      ],
      [
        "Ġ",
        "2"
      ],
      [
        "Ġ",
        "J"
      ],
      [
        "Ġ",
        "ent"
      ],
      [
        "Ġ",
        "ra"
      ],
      [
        "Ġ",
        "our"
      ],
      [
        "Ġ",
        "very"
      ],
      [
        "Ġ",
        "20"
      ],
      [
        "Ġa",
        "id"
      ],
      [
        "Ġa",
        "rom"
      ],
      [
        "in",
        "er"
      ],
      [
        "in",
        "ed"
      ],
      [
        "in",
        "ation"
      ],
      [
        "in",
        "king"
      ],
      [
        "in",
        "ations"
      ],
      [
        "in",
        "ner"
      ],
      [
        "re",
        "ad"
      ],
      [
        "re",
        "ek"
      ],
      [
        "Ġt",
        "ou"
      ],
      [
        "Ġt",
        "er"
      ],
      [
        "Ġt",
        "en"
      ],
      [
        "Ġt",
        "un"
      ],
      [
        "Ġt",
        "ur"
      ],
      [
        "Ġt",
        "akes"
      ],
      [
        "Ġt",
        "rust"
      ],
      [
        "Ġs",
        "ay"
      ],
      [
        "Ġs",
        "ight"
      ],
      [
        "Ġs",
        "ound"
      ],
      [
        "Ġs",
        "ense"
      ],
      [
        "ti",
        "ent"
      ],
      [
        "ti",
        "fied"
      ],
      [
        "ou",
        "th"
      ],
      [
        "ou",
        "ching"
      ],
      [
        "or",
        "g"
      ],
      [
        "or",
        "ies"
      ],
      [
        "or",
        "ting"
      ],
      [
        "he",
        "re"
      ],
      [
        "he",
        "rapy"
      ],
      [
        "al",
        "king"
      ],
      [
        "ing",
        "ful"
      ],
      [
        "Ġf",
        "er"
      ],
      [
        "Ġf",
        "ro"
      ],
      [
        "Ġf",
        "ra"
      ],
      [
        "Ġf",
        "ab"
      ],
      [
        "Ġf",
        "ur"
      ],
      [
        "Ġf",
        "lo"
      ],
      [
        "Ġf",
        "ad"
      ],
      [
        "Ġf",
        "ound"
      ],
      [
        "Ġf",
        "act"
      ],
      [
        "Ġf",
        "urn"
      ],
      [
        "Ġf",
        "uel"
      ],
      [
        "es",
        "te"
      ],
      [
        "es",
        "tic"
      ],
      [
        "es",
        "tions"
      ],
      [
        "at",
        "hy"
      ],
      [
        "at",
        "ching"
      ],
      [
        "at",
        "tern"
      ],
      [
        "at",
        "ely"
      ],
      [
        "at",
        "ters"
      ],
      [
        "at",
        "herapy"
      ],
      [
        "Ġc",
        "ome"
      ],
      [
        "Ġc",
        "ell"
      ],
      [
        "Ġc",
        "ruc"
      ],
      [
        "Ġc",
        "atch"
      ],
      [
        "Ġc",
        "ere"
      ],
      [
        "er",
        "ve"
      ],
      [
        "er",
        "ous"
      ],
      [
        "Ġw",
        "is"
      ],
      [
        "Ġw",
        "ake"
      ],
      [
        "Ġw",
        "all"
      ],
      [
        "Ġw",
        "ant"
      ],
      [
        "Ġw",
        "aste"
      ],
      [
        "Ġw",
        "atching"
      ],
      [
        "Ġm",
        "ass"
      ],
      [
        "Ġm",
        "any"
      ],
      [
        "Ġm",
        "outh"
      ],
      [
        "Ġm",
        "atters"
      ],
      [
        "Ġy",
        "ear"
      ],
      [
        "en",
        "ic"
      ],
      [
        "Ġp",
        "m"
      ],
      [
        "Ġp",
        "an"
      ],
      [
        "Ġp",
        "uri"
      ],
      [
        "Ġp",
        "ower"
      ],
      [
        "Ġp",
        "rioritizing"
      ],
      [
        "Ġp",
        "estic"
      ],
      [
        "Ġp",
        "attern"
      ],
      [
        "it",
        "ing"
      ],
      [
        "it",
        "ure"
      ],
      [
        "it",
        "able"
      ],
      [
        "Ġb",
        "l"
      ],
      [
        "Ġb",
        "it"
      ],
      [
        "Ġb",
        "el"
      ],
      [
        "Ġb",
        "ri"
      ],
      [
        "Ġb",
        "am"
      ],
      [
        "Ġb",
        "ac"
      ],
      [
        "Ġb",
        "ad"
      ],
      [
        "Ġb",
        "ig"
      ],
      [
        "Ġb",
        "oth"
      ],
      [
        "Ġb",
        "ored"
      ],
      [
        "Ġto",
        "ward"
      ],
      [
        "le",
        "ly"
      ],
      [
        "le",
        "ction"
      ],
      [
        "Ġd",
        "et"
      ],
      [
        "Ġd",
        "ep"
      ],
      [
        "Ġd",
        "est"
      ],
      [
        "Ġd",
        "one"
      ],
      [
        "Ġd",
        "rink"
      ],
      [
        "Ġd",
        "inner"
      ],
      [
        "Ġre",
        "si"
      ],
      [
        "Ġre",
        "ci"
      ],
      [
        "Ġre",
        "cy"
      ],
      [
        "Ġre",
        "pl"
      ],
      [
        "uc",
        "es"
      ],
      [
        "Ġo",
        "b"
      ],
      [
        "Ġo",
        "verc"
      ],
      [
        "ar",
        "p"
      ],
      [
        "ar",
        "ly"
      ],
      [
        "ar",
        "ian"
      ],
      [
        "Ġe",
        "ight"
      ],
      [
        "Ġe",
        "lev"
      ],
      [
        "Ġe",
        "lect"
      ],
      [
        "Ġe",
        "arly"
      ],
      [
        "is",
        "m"
      ],
      [
        "is",
        "ure"
      ],
      [
        "is",
        "hing"
      ],
      [
        "is",
        "sion"
      ],
      [
        "ro",
        "ly"
      ],
      [
        "Ġhe",
        "mp"
      ],
      [
        "Ġhe",
        "rbs"
      ],
      [
        "Ġin",
        "d"
      ],
      [
        "Ġin",
        "fe"
      ],
      [
        "Ġin",
        "tern"
      ],
      [
        "Ġin",
        "form"
      ],
      [
        "Ġin",
        "termittent"
      ],
      [
        "Ġin",
        "flamm"
      ],
      [
        "et",
        "og"
      ],
      [
        "im",
        "ent"
      ],
      [
        "ed",
        "back"
      ],
      [
        "Ġthe",
        "rap"
      ],
      [
        "th",
        "ing"
      ],
      [
        "Ġfor",
        "um"
      ],
      [
        "Ġfor",
        "tified"
      ],
      [
        "Ġg",
        "re"
      ],
      [
        "Ġg",
        "am"
      ],
      [
        "ic",
        "ro"
      ],
      [
        "Ġst",
        "ra"
      ],
      [
        "Ġst",
        "ri"
      ],
      [
        "Ġst",
        "ud"
      ],
      [
        "Ġst",
        "op"
      ],
      [
        "Ġst",
        "ruggling"
      ],
      [
        "Ġl",
        "ine"
      ],
      [
        "Ġh",
        "it"
      ],
      [
        "Ġh",
        "ar"
      ],
      [
        "Ġh",
        "ind"
      ],
      [
        "Ġh",
        "um"
      ],
      [
        "Ġh",
        "ist"
      ],
      [
        "Ġh",
        "ob"
      ],
      [
        "Ġh",
        "ouse"
      ],
      [
        "ay",
        "o"
      ],
      [
        "ay",
        "s"
      ],
      [
        "ul",
        "ations"
      ],
      [
        "om",
        "en"
      ],
      [
        "el",
        "s"
      ],
      [
        "el",
        "ing"
      ],
      [
        "el",
        "ines"
      ],
      [
        "Ġn",
        "orm"
      ],
      [
        "cti",
        "vity"
      ],
      [
        "si",
        "tion"
      ],
      [
        "si",
        "tive"
      ],
      [
        "Ġfo",
        "llow"
      ],
      [
        "ĠS",
        "it"
      ],
      [
        "ĠS",
        "elf"
      ],
      [
        "ĠS",
        "ur"
      ],
      [
        "ĠT",
        "as"
      ],
      [
        "Ġon",
        "ce"
      ],
      [
        "Ġon",
        "ly"
      ],
      [
        "Ġex",
        "cell"
      ],
      [
        "ĠE",
        "very"
      ],
      [
        "ĠE",
        "mp"
      ],
      [
        "Ġare",
        "a"
      ],
      [
        "as",
        "h"
      ],
      [
        "as",
        "ing"
      ],
      [
        "ĠA",
        "l"
      ],
      [
        "ĠA",
        "t"
      ],
      [
        "ĠA",
        "ctive"
      ],
      [
        "ĠA",
        "pp"
      ],
      [
        "ĠA",
        "fter"
      ],
      [
        "ĠA",
        "ctivity"
      ],
      [
        "ce",
        "ive"
      ],
      [
        "Ġsu",
        "fficient"
      ],
      [
        "Ġsu",
        "itable"
      ],
      [
        "id",
        "es"
      ],
      [
        "ĠW",
        "arm"
      ],
      [
        "Ġdi",
        "ary"
      ],
      [
        "Ġhelp",
        "ful"
      ],
      [
        "ĠM",
        "us"
      ],
      [
        "ĠM",
        "aintain"
      ],
      [
        "ĠM",
        "orning"
      ],
      [
        "ĠM",
        "eas"
      ],
      [
        "Ġim",
        "ager"
      ],
      [
        "ĠH",
        "ome"
      ],
      [
        "fe",
        "ction"
      ],
      [
        "ĠC",
        "o"
      ],
      [
        "ĠC",
        "le"
      ],
      [
        "ĠC",
        "ar"
      ],
      [
        "ĠC",
        "ust"
      ],
      [
        "ol",
        "d"
      ],
      [
        "Ġcon",
        "f"
      ],
      [
        "un",
        "ities"
      ],
      [
        "ir",
        "y"
      ],
      [
        "ĠP",
        "re"
      ],
      [
        "ĠP",
        "ut"
      ],
      [
        "ĠP",
        "ay"
      ],
      [
        "ĠP",
        "ack"
      ],
      [
        "ĠP",
        "ark"
      ],
      [
        "ge",
        "ment"
      ],
      [
        "Ġal",
        "ong"
      ],
      [
        "Ġal",
        "mon"
      ],
      [
        "Ġwork",
        "load"
      ],
      [
        "te",
        "in"
      ],
      [
        "te",
        "nd"
      ],
      [
        "Ġr",
        "ate"
      ],
      [
        "ter",
        "ial"
      ],
      [
        "Ġwh",
        "y"
      ],
      [
        "Ġbe",
        "ing"
      ],
      [
        "Ġbe",
        "gin"
      ],
      [
        "Ġle",
        "isure"
      ],
      [
        "Ġis",
        "sues"
      ],
      [
        "Ġth",
        "ink"
      ],
      [
        "Ġth",
        "inking"
      ],
      [
        "Ġmo",
        "ving"
      ],
      [
        "ac",
        "es"
      ],
      [
        "ac",
        "tions"
      ],
      [
        "ac",
        "hes"
      ],
      [
        "ac",
        "cept"
      ],
      [
        "ĠR",
        "est"
      ],
      [
        "mo",
        "te"
      ],
      [
        "port",
        "unities"
      ],
      [
        "ĠD",
        "uring"
      ],
      [
        "ĠD",
        "eep"
      ],
      [
        "ĠD",
        "ynamic"
      ],
      [
        "Ġch",
        "unks"
      ],
      [
        "lo",
        "re"
      ],
      [
        "Ġrel",
        "i"
      ],
      [
        "Ġrel",
        "ie"
      ],
      [
        "Ġint",
        "ensity"
      ],
      [
        "pro",
        "cess"
      ],
      [
        "pro",
        "pri"
      ],
      [
        "est",
        "ones"
      ],
      [
        "Ġha",
        "pp"
      ],
      [
        "Ġha",
        "zard"
      ],
      [
        "Ġne",
        "xt"
      ],
      [
        "ĠG",
        "reek"
      ],
      [
        "Ġfe",
        "et"
      ],
      [
        "Ġde",
        "m"
      ],
      [
        "Ġde",
        "al"
      ],
      [
        "ru",
        "bs"
      ],
      [
        "ren",
        "ce"
      ],
      [
        "Ġout",
        "ings"
      ],
      [
        "ant",
        "ly"
      ],
      [
        "Ġpl",
        "ant"
      ],
      [
        "Ġcom",
        "es"
      ],
      [
        "Ġcom",
        "mit"
      ],
      [
        "Ġdo",
        "ors"
      ],
      [
        "tiv",
        "ation"
      ],
      [
        "ĠEx",
        "per"
      ],
      [
        "Ġso",
        "lely"
      ],
      [
        "Ġeffe",
        "ct"
      ],
      [
        "Ġeffe",
        "cts"
      ],
      [
        "Ġrout",
        "ines"
      ],
      [
        "ther",
        "s"
      ],
      [
        "Ġover",
        "load"
      ],
      [
        "Ġover",
        "tra"
      ],
      [
        "Ġrelax",
        "ing"
      ],
      [
        "Ġrelax",
        "ed"
      ],
      [
        "ven",
        "tive"
      ],
      [
        "Ġad",
        "opt"
      ],
      [
        "Ġpre",
        "ventive"
      ],
      [
        "Ġposi",
        "tives"
      ],
      [
        "Ġtra",
        "iner"
      ],
      [
        "Ġall",
        "ergy"
      ],
      [
        "ie",
        "fs"
      ],
      [
        "Ġveget",
        "able"
      ],
      [
        "Ġhab",
        "it"
      ],
      [
        "ĠSet",
        "ting"
      ],
      [
        "Ġj",
        "ud"
      ],
      [
        "Ġj",
        "oining"
      ],
      [
        "ĠIn",
        "t"
      ],
      [
        "ĠIn",
        "vest"
      ],
      [
        "Ġwhen",
        "ever"
      ],
      [
        "Ġsh",
        "ow"
      ],
      [
        "Ġsh",
        "op"
      ],
      [
        "Ġsh",
        "arp"
      ],
      [
        "Ġsh",
        "rubs"
      ],
      [
        "Ġqu",
        "iet"
      ],
      [
        "Ġqu",
        "estions"
      ],
      [
        "Ġsy",
        "nthetic"
      ],
      [
        "Ġgra",
        "dually"
      ],
      [
        "ust",
        "le"
      ],
      [
        "ĠY",
        "es"
      ],
      [
        "Ġus",
        "age"
      ],
      [
        "ĠCon",
        "nec"
      ],
      [
        "Ġsupport",
        "s"
      ],
      [
        "ific",
        "ations"
      ],
      [
        "Ġfeel",
        "ings"
      ],
      [
        "Ġmanage",
        "ment"
      ],
      [
        "Ġmanage",
        "able"
      ],
      [
        "Ġkeep",
        "ing"
      ],
      [
        "for",
        "ce"
      ],
      [
        "per",
        "ature"
      ],
      [
        "ĠO",
        "thers"
      ],
      [
        "Ġac",
        "cess"
      ],
      [
        "Ġac",
        "upuncture"
      ],
      [
        "oun",
        "ts"
      ],
      [
        "Ġper",
        "sistent"
      ],
      [
        "Ġper",
        "fection"
      ],
      [
        "Ġda",
        "iry"
      ],
      [
        "Ġevery",
        "one"
      ],
      [
        "Ġprovid",
        "ing"
      ],
      [
        "Ġmotiv",
        "ation"
      ],
      [
        "Ġachie",
        "ving"
      ],
      [
        "Ġsk",
        "ip"
      ],
      [
        "Ġsp",
        "in"
      ],
      [
        "Ġsp",
        "lit"
      ],
      [
        "ĠBe",
        "ing"
      ],
      [
        "Ġsmo",
        "oth"
      ],
      [
        "ard",
        "en"
      ],
      [
        "ĠAd",
        "equate"
      ],
      [
        "ĠAd",
        "opt"
      ],
      [
        "ĠRegular",
        "ly"
      ],
      [
        "ĠK",
        "now"
      ],
      [
        "ĠV",
        "is"
      ],
      [
        "ĠV",
        "OCs"
      ],
      [
        "Ġk",
        "ind"
      ],
      [
        "Ġreco",
        "gn"
      ],
      [
        "Ġop",
        "en"
      ],
      [
        "Ġop",
        "portunities"
      ],
      [
        "Ġscreen",
        "ing"
      ],
      [
        "iz",
        "ed"
      ],
      [
        "Ġres",
        "et"
      ],
      [
        "Ġres",
        "orting"
      ],
      [
        "Ġrest",
        "ful"
      ],
      [
        "Ġclean",
        "ser"
      ],
      [
        "Ġun",
        "process"
      ],
      [
        "Ġproduc",
        "e"
      ],
      [
        "Ġimmun",
        "ity"
      ],
      [
        "so",
        "ciation"
      ],
      [
        "Ġemo",
        "tions"
      ],
      [
        "Ġdiffe",
        "rence"
      ],
      [
        "Ġmod",
        "ifications"
      ],
      [
        "Ġem",
        "ail"
      ],
      [
        "com",
        "pas"
      ],
      [
        "ot",
        "t"
      ],
      [
        "Ġful",
        "fill"
      ],
      [
        "Ġpers",
        "pe"
      ],
      [
        "Ġref",
        "ined"
      ],
      [
        "Ġinvol",
        "ved"
      ],
      [
        "Ġgu",
        "ard"
      ],
      [
        "Ġgu",
        "ilt"
      ],
      [
        "ĠPl",
        "an"
      ],
      [
        "ĠPl",
        "atea"
      ],
      [
        "ĠPro",
        "biotic"
      ],
      [
        "ĠPro",
        "gress"
      ],
      [
        "ĠPro",
        "tein"
      ],
      [
        "ĠPro",
        "mote"
      ],
      [
        "Ġca",
        "use"
      ],
      [
        "Ġca",
        "uses"
      ],
      [
        "Ġph",
        "ones"
      ],
      [
        "Ġblo",
        "ck"
      ],
      [
        "Ġlos",
        "ing"
      ],
      [
        "ĠThe",
        "y"
      ],
      [
        "Ġexp",
        "lore"
      ],
      [
        "ĠDe",
        "hyd"
      ],
      [
        "Ġtry",
        "ing"
      ],
      [
        "Ġcol",
        "ors"
      ],
      [
        "Ġlun",
        "gs"
      ],
      [
        "Ġnec",
        "k"
      ],
      [
        "Ġdist",
        "ance"
      ],
      [
        "Ġknow",
        "n"
      ],
      [
        "Ġsugar",
        "s"
      ],
      [
        "pe",
        "h"
      ],
      [
        "Ġreg",
        "ener"
      ],
      [
        "Ġaltern",
        "ate"
      ],
      [
        "Ġnegative",
        "ly"
      ],
      [
        "Ġapp",
        "re"
      ],
      [
        "Ġfull",
        "ness"
      ],
      [
        "Ġco",
        "ach"
      ],
      [
        "Ġhun",
        "ching"
      ],
      [
        "Ġhun",
        "gry"
      ],
      [
        "Ġorgan",
        "ization"
      ],
      [
        "Ġorgan",
        "ized"
      ],
      [
        "ĠMed",
        "itate"
      ],
      [
        "Ġconnec",
        "t"
      ],
      [
        "Ġconnec",
        "tion"
      ],
      [
        "Ġconnec",
        "tions"
      ],
      [
        "Ġconnec",
        "ted"
      ],
      [
        "ĠBre",
        "aks"
      ],
      [
        "Ġguid",
        "e"
      ],
      [
        "Ġguid",
        "elines"
      ],
      [
        "Ġtrigg",
        "er"
      ],
      [
        "Ġinterest",
        "s"
      ],
      [
        "Ġro",
        "le"
      ],
      [
        "Ġro",
        "om"
      ],
      [
        "Ġro",
        "ofs"
      ],
      [
        "ĠQu",
        "it"
      ],
      [
        "Ġdis",
        "rupt"
      ],
      [
        "Ġgl",
        "utes"
      ],
      [
        "Ġlim",
        "ber"
      ],
      [
        "ĠHe",
        "alth"
      ],
      [
        "Ġconsider",
        "ing"
      ],
      [
        "ĠGo",
        "od"
      ],
      [
        "Ġmedic",
        "ations"
      ],
      [
        "Ġadd",
        "ing"
      ],
      [
        "Ġadd",
        "ed"
      ],
      [
        "Ġrecommend",
        "ed"
      ],
      [
        "go",
        "od"
      ],
      [
        "pl",
        "ify"
      ],
      [
        "Ġag",
        "ree"
      ],
      [
        "Ġfl",
        "avor"
      ],
      [
        "Ġcultiv",
        "ating"
      ],
      [
        "Ġbi",
        "ke"
      ],
      [
        "Ġbr",
        "ing"
      ],
      [
        "Ġrele",
        "ase"
      ],
      [
        "Ġnour",
        "ish"
      ],
      [
        "Ġproble",
        "m"
      ],
      [
        "ĠMo",
        "isturi"
      ],
      [
        "ĠMo",
        "tivation"
      ],
      [
        "ĠRem",
        "ind"
      ],
      [
        "Ġadjust",
        "ing"
      ],
      [
        "Ġbreath",
        "s"
      ],
      [
        "Ġoptim",
        "al"
      ],
      [
        "Ġaccount",
        "able"
      ],
      [
        "asi",
        "zes"
      ],
      [
        "ne",
        "y"
      ],
      [
        "Ġtem",
        "perature"
      ],
      [
        "Ġtem",
        "peh"
      ],
      [
        "Ġsa",
        "uer"
      ],
      [
        "Ġsa",
        "uces"
      ],
      [
        "Ġsl",
        "ouching"
      ],
      [
        "Ġsod",
        "a"
      ],
      [
        "Ġwor",
        "th"
      ],
      [
        "Ġwor",
        "ld"
      ],
      [
        "Ġpart",
        "ner"
      ],
      [
        "Ġinter",
        "val"
      ],
      [
        "Ġinter",
        "actions"
      ],
      [
        "Ġsta",
        "ges"
      ],
      [
        "Ġstand",
        "ing"
      ],
      [
        "Ġnum",
        "ber"
      ],
      [
        "Ġnum",
        "erous"
      ],
      [
        "Ġexcessive",
        "ly"
      ],
      [
        "Ġanti",
        "bod"
      ],
      [
        "Ġlea",
        "ves"
      ],
      [
        "Ġlea",
        "fy"
      ],
      [
        "ĠBalan",
        "ced"
      ],
      [
        "ĠBalan",
        "cing"
      ],
      [
        "Ġwee",
        "ks"
      ],
      [
        "Ġplatea",
        "us"
      ],
      [
        "Ġperi",
        "ods"
      ],
      [
        "ĠConsum",
        "e"
      ],
      [
        "ĠConsum",
        "ing"
      ],
      [
        "Ġindivid",
        "uals"
      ],
      [
        "Ġsensitiv",
        "ities"
      ],
      [
        "Ġfrequent",
        "ly"
      ],
      [
        "Ġrestric",
        "tion"
      ],
      [
        "Ġrestric",
        "tive"
      ],
      [
        "vest",
        "ing"
      ],
      [
        "Ġtreat",
        "s"
      ],
      [
        "Ġtreat",
        "ments"
      ],
      [
        "Ġsens",
        "ation"
      ],
      [
        "Ġfil",
        "ters"
      ],
      [
        "Ġmet",
        "hods"
      ],
      [
        "Ġpa",
        "tient"
      ],
      [
        "Ġbud",
        "dy"
      ],
      [
        "Ġdam",
        "age"
      ],
      [
        "Ġheal",
        "ing"
      ],
      [
        "Ġencourage",
        "ment"
      ],
      [
        "ĠPo",
        "sitive"
      ],
      [
        "Ġpoin",
        "t"
      ],
      [
        "Ġpoin",
        "ts"
      ],
      [
        "Ġvis",
        "ion"
      ],
      [
        "Ġcommun",
        "ity"
      ],
      [
        "Ġmeas",
        "ures"
      ],
      [
        "Ġdoes",
        "n"
      ],
      [
        "Ġjour",
        "nal"
      ],
      [
        "Ġjour",
        "ney"
      ],
      [
        "ĠOrgan",
        "ize"
      ],
      [
        "Ġbenef",
        "it"
      ],
      [
        "Ġbenef",
        "its"
      ],
      [
        "Ġglass",
        "es"
      ],
      [
        "Ġagain",
        "st"
      ],
      [
        "ap",
        "propri"
      ],
      [
        "ff",
        "er"
      ],
      [
        "lin",
        "ic"
      ],
      [
        "min",
        "ute"
      ],
      [
        "ric",
        "s"
      ],
      [
        "Ġz",
        "ones"
      ],
      [
        "Ġcop",
        "ing"
      ],
      [
        "Ġcyc",
        "ling"
      ],
      [
        "Ġwrit",
        "ing"
      ],
      [
        "Ġmon",
        "th"
      ],
      [
        "Ġmis",
        "o"
      ],
      [
        "Ġmil",
        "estones"
      ],
      [
        "Ġband",
        "s"
      ],
      [
        "Ġok",
        "ay"
      ],
      [
        "Ġoil",
        "s"
      ],
      [
        "Ġef",
        "fort"
      ],
      [
        "Ġeasi",
        "ly"
      ],
      [
        "Ġins",
        "ulation"
      ],
      [
        "Ġgy",
        "m"
      ],
      [
        "Ġhol",
        "istic"
      ],
      [
        "ĠIm",
        "plement"
      ],
      [
        "ĠSim",
        "plify"
      ],
      [
        "Ġexpect",
        "ations"
      ],
      [
        "Ġsustain",
        "able"
      ],
      [
        "Ġdirect",
        "ly"
      ],
      [
        "Ġconven",
        "tional"
      ],
      [
        "Ġaler",
        "t"
      ],
      [
        "ĠRel",
        "ax"
      ],
      [
        "ĠRep",
        "lace"
      ],
      [
        "Ġincre",
        "asing"
      ],
      [
        "ĠBreat",
        "hing"
      ],
      [
        "Ġval",
        "ues"
      ],
      [
        "Ġdeadl",
        "ines"
      ],
      [
        "Ġmem",
        "bers"
      ],
      [
        "Ġmean",
        "ingful"
      ],
      [
        "Ġtrac",
        "king"
      ],
      [
        "Ġjog",
        "ging"
      ],
      [
        "ĠUn",
        "healthy"
      ],
      [
        "ĠEnga",
        "ge"
      ],
      [
        "Ġrefres",
        "hed"
      ],
      [
        "Ġcolor",
        "ful"
      ],
      [
        "Ġconsum",
        "ption"
      ],
      [
        "Ġconscious",
        "ly"
      ],
      [
        "Ġregim",
        "en"
      ],
      [
        "Ġemph",
        "asizes"
      ],
      [
        "Ġdiscus",
        "sion"
      ],
      [
        "Ġloc",
        "al"
      ],
      [
        "Ġsignific",
        "antly"
      ],
      [
        "Ġweeke",
        "nds"
      ],
      [
        "Ġcirc",
        "ulation"
      ],
      [
        "ĠParticip",
        "ate"
      ],
      [
        "ĠDistra",
        "ct"
      ],
      [
        "hav",
        "i"
      ],
      [
        "kra",
        "ut"
      ],
      [
        "Ġtou",
        "ch"
      ],
      [
        "Ġten",
        "sion"
      ],
      [
        "Ġtun",
        "e"
      ],
      [
        "Ġfro",
        "zen"
      ],
      [
        "Ġfra",
        "gran"
      ],
      [
        "Ġfab",
        "rics"
      ],
      [
        "Ġfur",
        "ther"
      ],
      [
        "Ġfurn",
        "iture"
      ],
      [
        "este",
        "em"
      ],
      [
        "Ġcruc",
        "ial"
      ],
      [
        "Ġpan",
        "els"
      ],
      [
        "Ġpestic",
        "ides"
      ],
      [
        "Ġpattern",
        "s"
      ],
      [
        "Ġbel",
        "iefs"
      ],
      [
        "Ġbam",
        "boo"
      ],
      [
        "Ġbac",
        "terial"
      ],
      [
        "Ġtoward",
        "s"
      ],
      [
        "Ġresi",
        "l"
      ],
      [
        "Ġreci",
        "pes"
      ],
      [
        "Ġrecy",
        "cle"
      ],
      [
        "Ġoverc",
        "ome"
      ],
      [
        "Ġelev",
        "ator"
      ],
      [
        "Ġinfe",
        "ctions"
      ],
      [
        "Ġintern",
        "al"
      ],
      [
        "Ġinform",
        "ation"
      ],
      [
        "Ġinflamm",
        "ation"
      ],
      [
        "etog",
        "enic"
      ],
      [
        "Ġtherap",
        "ies"
      ],
      [
        "Ġgam",
        "es"
      ],
      [
        "Ġstra",
        "ight"
      ],
      [
        "Ġstri",
        "ke"
      ],
      [
        "Ġstud",
        "ying"
      ],
      [
        "Ġhist",
        "ory"
      ],
      [
        "Ġhob",
        "b"
      ],
      [
        "Ġnorm",
        "al"
      ],
      [
        "Ġfollow",
        "ing"
      ],
      [
        "ĠSur",
        "round"
      ],
      [
        "ĠTas",
        "ks"
      ],
      [
        "Ġexcell",
        "ent"
      ],
      [
        "ĠApp",
        "lying"
      ],
      [
        "Ġimager",
        "y"
      ],
      [
        "ĠCust",
        "om"
      ],
      [
        "Ġalmon",
        "d"
      ],
      [
        "accept",
        "ance"
      ],
      [
        "Ġhapp",
        "en"
      ],
      [
        "Ġhazard",
        "ous"
      ],
      [
        "Ġcommit",
        "ment"
      ],
      [
        "ĠExper",
        "iment"
      ],
      [
        "Ġovertra",
        "ining"
      ],
      [
        "Ġsmooth",
        "ie"
      ],
      [
        "Ġrecogn",
        "ize"
      ],
      [
        "Ġunprocess",
        "ed"
      ],
      [
        "compas",
        "sion"
      ],
      [
        "ĠPlatea",
        "us"
      ],
      [
        "ĠDehyd",
        "ration"
      ],
      [
        "Ġsauer",
        "kraut"
      ],
      [
        "Ġantibod",
        "ies"
      ],
      [
        "appropri",
        "ate"
      ]
    ]
  }
}